{
  "version": "1.0",
  "truncation": null,
  "padding": null,
  "added_tokens": [
    {
      "id": 0,
      "content": "<|pad|>",
      "single_word": false,
      "lstrip": false,
      "rstrip": false,
      "normalized": false,
      "special": true
    },
    {
      "id": 1,
      "content": "<|unk|>",
      "single_word": false,
      "lstrip": false,
      "rstrip": false,
      "normalized": false,
      "special": true
    },
    {
      "id": 2,
      "content": "<|bos|>",
      "single_word": false,
      "lstrip": false,
      "rstrip": false,
      "normalized": false,
      "special": true
    },
    {
      "id": 3,
      "content": "<|eos|>",
      "single_word": false,
      "lstrip": false,
      "rstrip": false,
      "normalized": false,
      "special": true
    },
    {
      "id": 4,
      "content": "<|im_start|>",
      "single_word": false,
      "lstrip": false,
      "rstrip": false,
      "normalized": false,
      "special": true
    },
    {
      "id": 5,
      "content": "<|im_end|>",
      "single_word": false,
      "lstrip": false,
      "rstrip": false,
      "normalized": false,
      "special": true
    },
    {
      "id": 6,
      "content": "<|thought|>",
      "single_word": false,
      "lstrip": false,
      "rstrip": false,
      "normalized": false,
      "special": true
    },
    {
      "id": 7,
      "content": "<|plan|>",
      "single_word": false,
      "lstrip": false,
      "rstrip": false,
      "normalized": false,
      "special": true
    },
    {
      "id": 8,
      "content": "<|tool_call|>",
      "single_word": false,
      "lstrip": false,
      "rstrip": false,
      "normalized": false,
      "special": true
    },
    {
      "id": 9,
      "content": "<|tool_result|>",
      "single_word": false,
      "lstrip": false,
      "rstrip": false,
      "normalized": false,
      "special": true
    },
    {
      "id": 10,
      "content": "<|system|>",
      "single_word": false,
      "lstrip": false,
      "rstrip": false,
      "normalized": false,
      "special": true
    },
    {
      "id": 11,
      "content": "<|user|>",
      "single_word": false,
      "lstrip": false,
      "rstrip": false,
      "normalized": false,
      "special": true
    },
    {
      "id": 12,
      "content": "<|assistant|>",
      "single_word": false,
      "lstrip": false,
      "rstrip": false,
      "normalized": false,
      "special": true
    }
  ],
  "normalizer": null,
  "pre_tokenizer": {
    "type": "ByteLevel",
    "add_prefix_space": false,
    "trim_offsets": true,
    "use_regex": true
  },
  "post_processor": null,
  "decoder": {
    "type": "ByteLevel",
    "add_prefix_space": true,
    "trim_offsets": true,
    "use_regex": true
  },
  "model": {
    "type": "BPE",
    "dropout": null,
    "unk_token": "<|unk|>",
    "continuing_subword_prefix": null,
    "end_of_word_suffix": null,
    "fuse_unk": false,
    "byte_fallback": false,
    "ignore_merges": false,
    "vocab": {
      "<|pad|>": 0,
      "<|unk|>": 1,
      "<|bos|>": 2,
      "<|eos|>": 3,
      "<|im_start|>": 4,
      "<|im_end|>": 5,
      "<|thought|>": 6,
      "<|plan|>": 7,
      "<|tool_call|>": 8,
      "<|tool_result|>": 9,
      "<|system|>": 10,
      "<|user|>": 11,
      "<|assistant|>": 12,
      "!": 13,
      "\"": 14,
      "#": 15,
      "$": 16,
      "%": 17,
      "&": 18,
      "'": 19,
      "(": 20,
      ")": 21,
      "*": 22,
      "+": 23,
      ",": 24,
      "-": 25,
      ".": 26,
      "/": 27,
      "0": 28,
      "1": 29,
      "2": 30,
      "3": 31,
      "4": 32,
      "5": 33,
      "6": 34,
      "7": 35,
      "8": 36,
      "9": 37,
      ":": 38,
      ";": 39,
      "<": 40,
      "=": 41,
      ">": 42,
      "?": 43,
      "@": 44,
      "A": 45,
      "B": 46,
      "C": 47,
      "D": 48,
      "E": 49,
      "F": 50,
      "G": 51,
      "H": 52,
      "I": 53,
      "J": 54,
      "K": 55,
      "L": 56,
      "M": 57,
      "N": 58,
      "O": 59,
      "P": 60,
      "Q": 61,
      "R": 62,
      "S": 63,
      "T": 64,
      "U": 65,
      "V": 66,
      "W": 67,
      "X": 68,
      "Y": 69,
      "Z": 70,
      "[": 71,
      "\\": 72,
      "]": 73,
      "^": 74,
      "_": 75,
      "`": 76,
      "a": 77,
      "b": 78,
      "c": 79,
      "d": 80,
      "e": 81,
      "f": 82,
      "g": 83,
      "h": 84,
      "i": 85,
      "j": 86,
      "k": 87,
      "l": 88,
      "m": 89,
      "n": 90,
      "o": 91,
      "p": 92,
      "q": 93,
      "r": 94,
      "s": 95,
      "t": 96,
      "u": 97,
      "v": 98,
      "w": 99,
      "x": 100,
      "y": 101,
      "z": 102,
      "{": 103,
      "|": 104,
      "}": 105,
      "~": 106,
      "¡": 107,
      "¢": 108,
      "£": 109,
      "¤": 110,
      "¥": 111,
      "¦": 112,
      "§": 113,
      "¨": 114,
      "©": 115,
      "ª": 116,
      "«": 117,
      "¬": 118,
      "®": 119,
      "¯": 120,
      "°": 121,
      "±": 122,
      "²": 123,
      "³": 124,
      "´": 125,
      "µ": 126,
      "¶": 127,
      "·": 128,
      "¸": 129,
      "¹": 130,
      "º": 131,
      "»": 132,
      "¼": 133,
      "½": 134,
      "¾": 135,
      "¿": 136,
      "À": 137,
      "Á": 138,
      "Â": 139,
      "Ã": 140,
      "Ä": 141,
      "Å": 142,
      "Æ": 143,
      "Ç": 144,
      "È": 145,
      "É": 146,
      "Ê": 147,
      "Ë": 148,
      "Ì": 149,
      "Í": 150,
      "Î": 151,
      "Ï": 152,
      "Ð": 153,
      "Ñ": 154,
      "Ò": 155,
      "Ó": 156,
      "Ô": 157,
      "Õ": 158,
      "Ö": 159,
      "×": 160,
      "Ø": 161,
      "Ù": 162,
      "Ú": 163,
      "Û": 164,
      "Ü": 165,
      "Ý": 166,
      "Þ": 167,
      "ß": 168,
      "à": 169,
      "á": 170,
      "â": 171,
      "ã": 172,
      "ä": 173,
      "å": 174,
      "æ": 175,
      "ç": 176,
      "è": 177,
      "é": 178,
      "ê": 179,
      "ë": 180,
      "ì": 181,
      "í": 182,
      "î": 183,
      "ï": 184,
      "ð": 185,
      "ñ": 186,
      "ò": 187,
      "ó": 188,
      "ô": 189,
      "õ": 190,
      "ö": 191,
      "÷": 192,
      "ø": 193,
      "ù": 194,
      "ú": 195,
      "û": 196,
      "ü": 197,
      "ý": 198,
      "þ": 199,
      "ÿ": 200,
      "Ā": 201,
      "ā": 202,
      "Ă": 203,
      "ă": 204,
      "Ą": 205,
      "ą": 206,
      "Ć": 207,
      "ć": 208,
      "Ĉ": 209,
      "ĉ": 210,
      "Ċ": 211,
      "ċ": 212,
      "Č": 213,
      "č": 214,
      "Ď": 215,
      "ď": 216,
      "Đ": 217,
      "đ": 218,
      "Ē": 219,
      "ē": 220,
      "Ĕ": 221,
      "ĕ": 222,
      "Ė": 223,
      "ė": 224,
      "Ę": 225,
      "ę": 226,
      "Ě": 227,
      "ě": 228,
      "Ĝ": 229,
      "ĝ": 230,
      "Ğ": 231,
      "ğ": 232,
      "Ġ": 233,
      "ġ": 234,
      "Ģ": 235,
      "ģ": 236,
      "Ĥ": 237,
      "ĥ": 238,
      "Ħ": 239,
      "ħ": 240,
      "Ĩ": 241,
      "ĩ": 242,
      "Ī": 243,
      "ī": 244,
      "Ĭ": 245,
      "ĭ": 246,
      "Į": 247,
      "į": 248,
      "İ": 249,
      "ı": 250,
      "Ĳ": 251,
      "ĳ": 252,
      "Ĵ": 253,
      "ĵ": 254,
      "Ķ": 255,
      "ķ": 256,
      "ĸ": 257,
      "Ĺ": 258,
      "ĺ": 259,
      "Ļ": 260,
      "ļ": 261,
      "Ľ": 262,
      "ľ": 263,
      "Ŀ": 264,
      "ŀ": 265,
      "Ł": 266,
      "ł": 267,
      "Ń": 268,
      "Ġa": 269,
      "Ġt": 270,
      "in": 271,
      "re": 272,
      "st": 273,
      "on": 274,
      "nd": 275,
      "he": 276,
      "im": 277,
      "er": 278,
      "ar": 279,
      "<|": 280,
      "|>": 281,
      "ti": 282,
      "ing": 283,
      "Ġp": 284,
      "Ġs": 285,
      "Ġthe": 286,
      "an": 287,
      "al": 288,
      "en": 289,
      "ou": 290,
      "Ġo": 291,
      "tion": 292,
      "Ġc": 293,
      "Ġand": 294,
      "at": 295,
      "le": 296,
      "or": 297,
      "end": 298,
      "ed": 299,
      "art": 300,
      "is": 301,
      "as": 302,
      "Ġf": 303,
      "start": 304,
      "Ġw": 305,
      "Ġof": 306,
      "ol": 307,
      "Ġm": 308,
      "Ġre": 309,
      "Ġto": 310,
      "Ġb": 311,
      "ste": 312,
      "it": 313,
      "om": 314,
      "Ġin": 315,
      "es": 316,
      "ec": 317,
      "ul": 318,
      "Ġe": 319,
      "Ġd": 320,
      "ic": 321,
      "ent": 322,
      "ro": 323,
      "us": 324,
      "ble": 325,
      "ĠA": 326,
      "stem": 327,
      "ystem": 328,
      "ation": 329,
      "Ġg": 330,
      "si": 331,
      "ri": 332,
      "ere": 333,
      "ut": 334,
      "Ġh": 335,
      "Ġare": 336,
      "Ġis": 337,
      "Ġan": 338,
      "lan": 339,
      "ĠS": 340,
      "il": 341,
      "ap": 342,
      "ction": 343,
      "Ġex": 344,
      "ment": 345,
      "Ġpro": 346,
      "ve": 347,
      "et": 348,
      "eren": 349,
      "am": 350,
      "ev": 351,
      "ch": 352,
      "ant": 353,
      "ous": 354,
      "ĠT": 355,
      "Ġl": 356,
      "ĠC": 357,
      "Ġpre": 358,
      "Ġ\"": 359,
      "Ġth": 360,
      "ning": 361,
      "Ġ1": 362,
      "au": 363,
      "able": 364,
      "Ġsystem": 365,
      "th": 366,
      "el": 367,
      "Ġfor": 368,
      "ener": 369,
      "tri": 370,
      "ving": 371,
      "ason": 372,
      "Ġplan": 373,
      "ise": 374,
      "Ġtool": 375,
      "ad": 376,
      "ution": 377,
      "Ġgener": 378,
      "Ġn": 379,
      "Ġcap": 380,
      "ac": 381,
      "Ġretri": 382,
      "Ġretriev": 383,
      "onom": 384,
      "Ġsol": 385,
      "You": 386,
      "all": 387,
      "sist": 388,
      "Ġaut": 389,
      "ulti": 390,
      "ĠX": 391,
      "Ġmulti": 392,
      "aug": 393,
      "blem": 394,
      "Ġproblem": 395,
      "Ġreason": 396,
      "step": 397,
      "ĠAI": 398,
      "Ġaction": 399,
      "user": 400,
      "Ġexec": 401,
      "Ġprec": 402,
      "mented": 403,
      "Ġgeneration": 404,
      "Ġcapable": 405,
      "system": 406,
      "Ġplanning": 407,
      "sistant": 408,
      "Ġexecution": 409,
      "Ġautonom": 410,
      "Ġreasoning": 411,
      "Ġautonomous": 412,
      "Ġprecise": 413,
      "Ġretrieval": 414,
      "Ġsolving": 415,
      "ĠXeren": 416,
      "assistant": 417,
      "augmented": 418,
      "un": 419,
      "to": 420,
      "gh": 421,
      "ow": 422,
      "\":": 423,
      "res": 424,
      "Ġon": 425,
      "Ġ2": 426,
      "ĠI": 427,
      "ith": 428,
      "Ġst": 429,
      "ur": 430,
      "ir": 431,
      "ers": 432,
      "id": 433,
      "ĠM": 434,
      "ĠP": 435,
      "Ġas": 436,
      "ay": 437,
      "Ġbe": 438,
      "ter": 439,
      "Ġwith": 440,
      "ate": 441,
      "Ġv": 442,
      "ĠF": 443,
      "ĠB": 444,
      "ce": 445,
      "Ġhe": 446,
      "nt": 447,
      "um": 448,
      "Ġ(": 449,
      "od": 450,
      "se": 451,
      "oc": 452,
      "ĠH": 453,
      "ght": 454,
      "ot": 455,
      "ult": 456,
      "Ġcon": 457,
      "qu": 458,
      "tool": 459,
      "Ġwh": 460,
      "Ġwas": 461,
      "ge": 462,
      "if": 463,
      "ain": 464,
      "ĠThe": 465,
      "Ġy": 466,
      "ĠR": 467,
      "ly": 468,
      "ĠG": 469,
      "{\"": 470,
      "ect": 471,
      "Ġby": 472,
      "rom": 473,
      "Ġthat": 474,
      "ĠW": 475,
      "Ġal": 476,
      "Ġ3": 477,
      "Ġ20": 478,
      "Ġor": 479,
      "and": 480,
      "her": 481,
      "ound": 482,
      "Ġat": 483,
      "ĠL": 484,
      "Ġr": 485,
      "ĠD": 486,
      "Ġcom": 487,
      "Ġ'": 488,
      "ĠE": 489,
      "Ġde": 490,
      "Ġit": 491,
      "ount": 492,
      "op": 493,
      "ĠN": 494,
      "out": 495,
      "ity": 496,
      "ld": 497,
      "'s": 498,
      "ver": 499,
      "ist": 500,
      "tive": 501,
      "Ġfrom": 502,
      "our": 503,
      "ig": 504,
      "\",": 505,
      "Ġ19": 506,
      "Ġmo": 507,
      "ear": 508,
      "ke": 509,
      "The": 510,
      "Ġac": 511,
      "ex": 512,
      "ord": 513,
      "ated": 514,
      "em": 515,
      "ich": 516,
      "ary": 517,
      "Ġle": 518,
      "ab": 519,
      "uc": 520,
      "ard": 521,
      "up": 522,
      "ion": 523,
      "ĠO": 524,
      "atus": 525,
      "ure": 526,
      "ile": 527,
      "ĠJ": 528,
      "Ġch": 529,
      "ime": 530,
      "sion": 531,
      "ill": 532,
      "ĠU": 533,
      "ought": 534,
      "tt": 535,
      "ĠV": 536,
      "Ġrec": 537,
      "unction": 538,
      "00": 539,
      "iv": 540,
      "call": 541,
      "ag": 542,
      "Ġar": 543,
      "Ġres": 544,
      "ud": 545,
      "ery": 546,
      "thought": 547,
      "Plan": 548,
      "Wh": 549,
      "result": 550,
      "({\"": 551,
      "iz": 552,
      "})": 553,
      "tic": 554,
      "os": 555,
      "ort": 556,
      "âĢ": 557,
      "Ġsp": 558,
      "orm": 559,
      "01": 560,
      "ave": 561,
      "Ġwhich": 562,
      "Ġtr": 563,
      "ps": 564,
      "ast": 565,
      "ext": 566,
      "ally": 567,
      "Ġus": 568,
      "Ġwhe": 569,
      "Ġcont": 570,
      "ome": 571,
      "ies": 572,
      "alth": 573,
      "Ġcan": 574,
      "ber": 575,
      "ame": 576,
      "Ġfunction": 577,
      "ks": 578,
      "ell": 579,
      "ia": 580,
      "ine": 581,
      "Ġpl": 582,
      "Ġyou": 583,
      "64": 584,
      "ess": 585,
      "ase": 586,
      "Ġk": 587,
      "Ġexp": 588,
      "Ġcomp": 589,
      "ub": 590,
      "query": 591,
      "ilter": 592,
      "Ġrecord": 593,
      "ition": 594,
      "ector": 595,
      "og": 596,
      "Ġop": 597,
      "est": 598,
      "ont": 599,
      "ight": 600,
      "Ġsc": 601,
      "age": 602,
      "Ġsh": 603,
      "ĠK": 604,
      "ates": 605,
      "so": 606,
      "umm": 607,
      "ew": 608,
      "ĠSt": 609,
      "ong": 610,
      "ak": 611,
      "ust": 612,
      "ian": 613,
      "Ġhave": 614,
      "hed": 615,
      "ore": 616,
      "les": 617,
      "Ġsumm": 618,
      "are": 619,
      "ther": 620,
      "ocal": 621,
      "ip": 622,
      "ations": 623,
      "02": 624,
      "ĠIn": 625,
      "Ġinc": 626,
      "Ġhealth": 627,
      "irst": 628,
      "any": 629,
      "Ġwor": 630,
      "Ġdat": 631,
      "Ġhas": 632,
      "ĠIt": 633,
      "ice": 634,
      "Ġhis": 635,
      "py": 636,
      "ression": 637,
      "cul": 638,
      "ind": 639,
      "Ġdef": 640,
      "Ġmat": 641,
      "ach": 642,
      "mer": 643,
      "//": 644,
      "://": 645,
      "ttps": 646,
      "Ġrecords": 647,
      "ep": 648,
      "What": 649,
      "ial": 650,
      "56": 651,
      "Cont": 652,
      "Ġactive": 653,
      "ings": 654,
      "Context": 655,
      "Ġfile": 656,
      "Ġstatus": 657,
      "Ġnot": 658,
      "ree": 659,
      "Ġfirst": 660,
      "ĠCh": 661,
      "ory": 662,
      "ry": 663,
      "int": 664,
      "local": 665,
      "ack": 666,
      "xeren": 667,
      "Ġ+": 668,
      "low": 669,
      "alcul": 670,
      "Ġ>": 671,
      "Ġ64": 672,
      "ould": 673,
      "av": 674,
      "ff": 675,
      "Ġ*": 676,
      "Ġ256": 677,
      "erv": 678,
      "ased": 679,
      "ire": 680,
      "Ġcount": 681,
      "ational": 682,
      "Ġtime": 683,
      "ric": 684,
      "ue": 685,
      "amp": 686,
      "ans": 687,
      "Ġtheir": 688,
      "odel": 689,
      "ace": 690,
      "Ġalso": 691,
      "ĠUn": 692,
      "ct": 693,
      "status": 694,
      "uct": 695,
      "pp": 696,
      "Ġab": 697,
      "Ġev": 698,
      "Ġun": 699,
      "Ġse": 700,
      "ake": 701,
      "Ġme": 702,
      "Ġad": 703,
      "Ġresult": 704,
      "Ġcl": 705,
      "ide": 706,
      "Ġen": 707,
      "Ġpar": 708,
      "ĠPar": 709,
      "âĢĵ": 710,
      "ood": 711,
      "ra": 712,
      "ass": 713,
      "act": 714,
      "uch": 715,
      "ator": 716,
      "own": 717,
      "Ġwe": 718,
      "),": 719,
      "one": 720,
      "Ġper": 721,
      "Ġmost": 722,
      "Ġone": 723,
      "Ġplay": 724,
      "ward": 725,
      "ish": 726,
      "sid": 727,
      "Ġ202": 728,
      "ive": 729,
      "In": 730,
      "Ġstr": 731,
      "old": 732,
      "ance": 733,
      "Ġ200": 734,
      "Ġ15": 735,
      "ute": 736,
      "Ġwere": 737,
      "ond": 738,
      "Ġdefin": 739,
      "reated": 740,
      "oo": 741,
      "count": 742,
      "Ġdec": 743,
      "Ġthis": 744,
      "Ġits": 745,
      "vel": 746,
      "ify": 747,
      "itions": 748,
      "lud": 749,
      "Ġim": 750,
      "ents": 751,
      "Ġmatch": 752,
      "Ġj": 753,
      "ign": 754,
      "led": 755,
      "ments": 756,
      "ost": 757,
      "ĠTh": 758,
      "time": 759,
      "Ġother": 760,
      "feren": 761,
      "alu": 762,
      "ens": 763,
      "ll": 764,
      "Ġ201": 765,
      "ath": 766,
      "ited": 767,
      "Ġwhere": 768,
      "oint": 769,
      "ough": 770,
      "Ġyear": 771,
      "ĠHe": 772,
      "ence": 773,
      "earch": 774,
      "sh": 775,
      "Ġ0": 776,
      "Ġte": 777,
      "Ġwho": 778,
      "Ġthey": 779,
      "pic": 780,
      "https": 781,
      "Ġyour": 782,
      "Ġgr": 783,
      "Ġmore": 784,
      "Ġbut": 785,
      "Ġall": 786,
      "Ġsummary": 787,
      "ynt": 788,
      "ĠVal": 789,
      "Ġvector": 790,
      "ĠForm": 791,
      "Ġbec": 792,
      "ater": 793,
      "Ġmem": 794,
      "Ġdatab": 795,
      "meric": 796,
      "ĠFormul": 797,
      "Ġli": 798,
      "Ġkn": 799,
      "Ġbound": 800,
      "Ġinclud": 801,
      "Ġdatabase": 802,
      "Ġcomm": 803,
      "idate": 804,
      "Ġquery": 805,
      "iti": 806,
      "Ġend": 807,
      "Ġdo": 808,
      "Ġcalcul": 809,
      "Ġapp": 810,
      "Ġexpression": 811,
      "Ġdefinitions": 812,
      "port": 813,
      "Ġtw": 814,
      "Found": 815,
      "form": 816,
      "Ġmatching": 817,
      "__": 818,
      "Ġ{\"": 819,
      "ĠFormulate": 820,
      "erify": 821,
      "Ġsim": 822,
      "Ġover": 823,
      "\"})": 824,
      "Ġpe": 825,
      "ĠParse": 826,
      "Ġro": 827,
      "Ġ102": 828,
      "ie": 829,
      "anc": 830,
      "ĠValidate": 831,
      "land": 832,
      "we": 833,
      "Ġ1024": 834,
      "onf": 835,
      "und": 836,
      "ss": 837,
      "ite": 838,
      "eters": 839,
      "ark": 840,
      "ors": 841,
      "ĠAmeric": 842,
      "Ġqu": 843,
      "Ġsome": 844,
      "fter": 845,
      "get": 846,
      "enti": 847,
      "Ġout": 848,
      "erm": 849,
      "Ġ8": 850,
      "ever": 851,
      "Ġty": 852,
      "aus": 853,
      "ru": 854,
      "ical": 855,
      "aw": 856,
      "gu": 857,
      "Ġsuch": 858,
      "Ġup": 859,
      "Ġpr": 860,
      ").": 861,
      "cess": 862,
      "Ġmany": 863,
      "Ġmet": 864,
      "orn": 865,
      "ax": 866,
      "arch": 867,
      "Ġgo": 868,
      "Ġdif": 869,
      "vector": 870,
      "Ġag": 871,
      "Ġso": 872,
      "ĠInd": 873,
      "Ġbased": 874,
      "pt": 875,
      "ely": 876,
      "ash": 877,
      "pe": 878,
      "pl": 879,
      "ade": 880,
      "Ġlar": 881,
      "ize": 882,
      "ameters": 883,
      "Ġabout": 884,
      "ft": 885,
      "igh": 886,
      "ild": 887,
      "Ġworld": 888,
      "Ġbet": 889,
      "aly": 890,
      "ople": 891,
      "Ġresp": 892,
      "Ġ18": 893,
      "Ġtwo": 894,
      "ern": 895,
      "ains": 896,
      "Ġem": 897,
      "Ġdes": 898,
      "ng": 899,
      "Ġwhen": 900,
      "Ġ-": 901,
      "ĠRe": 902,
      "Ġprod": 903,
      "ĠUnited": 904,
      "Ġne": 905,
      "hn": 906,
      "tr": 907,
      "ollow": 908,
      "Ġbeen": 909,
      "19": 910,
      "oy": 911,
      "omp": 912,
      "uring": 913,
      "ten": 914,
      "red": 915,
      "Ġdis": 916,
      "gin": 917,
      "Ġwill": 918,
      "Ġinto": 919,
      "ail": 920,
      "sp": 921,
      "Ġoper": 922,
      "lic": 923,
      "king": 924,
      "Ġsec": 925,
      "Ġpop": 926,
      "wn": 927,
      "ered": 928,
      "ose": 929,
      "Ġoff": 930,
      "gan": 931,
      "Ġform": 932,
      "Ġco": 933,
      "Ġused": 934,
      "Ġthem": 935,
      "als": 936,
      "ied": 937,
      "ured": 938,
      "Ġhad": 939,
      "ob": 940,
      "ular": 941,
      "model": 942,
      "Ġpeople": 943,
      "Ġreg": 944,
      "per": 945,
      "tal": 946,
      "ilar": 947,
      "te": 948,
      "ick": 949,
      "Ġteam": 950,
      "Ġcol": 951,
      "ze": 952,
      "Ġfollow": 953,
      "ang": 954,
      "Ġdifferen": 955,
      "Ġpart": 956,
      "ween": 957,
      "ĠEx": 958,
      "Ġsimilar": 959,
      "ode": 960,
      "Ġbo": 961,
      "ari": 962,
      "ating": 963,
      "Ġfind": 964,
      "ts": 965,
      "ĠStates": 966,
      "Ġrespon": 967,
      "Ġthan": 968,
      "Ġtotal": 969,
      "Ġfin": 970,
      "olog": 971,
      "ays": 972,
      "Ġstruct": 973,
      "Ġ4": 974,
      "Ġafter": 975,
      "lect": 976,
      "Ġ5": 977,
      "ervice": 978,
      "ph": 979,
      "Ġknown": 980,
      "Ġlarge": 981,
      "ities": 982,
      "ball": 983,
      "Ġlear": 984,
      "Ġwould": 985,
      "Ġbu": 986,
      "ĠY": 987,
      "PI": 988,
      "Ġam": 989,
      "Ġcreated": 990,
      "ĠThis": 991,
      "me": 992,
      "rit": 993,
      "Ġlist": 994,
      "Ġbetween": 995,
      "hen": 996,
      "tern": 997,
      "lar": 998,
      "ata": 999,
      "Ġind": 1000,
      "search": 1001,
      "Ġint": 1002,
      "ower": 1003,
      "ched": 1004,
      "ames": 1005,
      "Ġwhat": 1006,
      "ne": 1007,
      "ĠAr": 1008,
      "ĠCount": 1009,
      "ĠAmerican": 1010,
      "Ġdoc": 1011,
      "Ġman": 1012,
      "Ġfe": 1013,
      "illion": 1014,
      "ces": 1015,
      "zer": 1016,
      "Ġuse": 1017,
      "Ġspec": 1018,
      "oun": 1019,
      "ily": 1020,
      "Ġgre": 1021,
      "Ġno": 1022,
      "irm": 1023,
      "Ġlan": 1024,
      "velop": 1025,
      "gr": 1026,
      "85": 1027,
      "ug": 1028,
      "Ġmay": 1029,
      "Ġeach": 1030,
      "orld": 1031,
      "Ġnum": 1032,
      "ool": 1033,
      "Ġmodel": 1034,
      "Ġph": 1035,
      "Ġ[": 1036,
      "Ġri": 1037,
      "erson": 1038,
      "Ġvalu": 1039,
      "ific": 1040,
      "ivers": 1041,
      "Ġyears": 1042,
      "sec": 1043,
      "resh": 1044,
      "ix": 1045,
      "Ġher": 1046,
      "ause": 1047,
      "for": 1048,
      "ting": 1049,
      "Ġcent": 1050,
      "aj": 1051,
      "Âł": 1052,
      "Ġdocu": 1053,
      "Ġcar": 1054,
      "Ġ199": 1055,
      "ful": 1056,
      "ĠAPI": 1057,
      "Ġonly": 1058,
      "Ġund": 1059,
      "hes": 1060,
      "Ġbest": 1061,
      "par": 1062,
      "Ġtree": 1063,
      "Ġlangu": 1064,
      "ĠAl": 1065,
      "Ġresponse": 1066,
      "Ġthere": 1067,
      "Ġwin": 1068,
      "202": 1069,
      "ov": 1070,
      "Ġfam": 1071,
      "ores": 1072,
      "rough": 1073,
      "ual": 1074,
      "Ġprov": 1075,
      "Ġwell": 1076,
      "ton": 1077,
      "Here": 1078,
      "TP": 1079,
      "Ġsm": 1080,
      "ization": 1081,
      "ati": 1082,
      "ĠAn": 1083,
      "Ġdevelop": 1084,
      "Ġfl": 1085,
      "Ġatt": 1086,
      "000": 1087,
      "ook": 1088,
      "oot": 1089,
      "ets": 1090,
      "Ġtrain": 1091,
      "RA": 1092,
      "oad": 1093,
      "Ġrel": 1094,
      "Ġhead": 1095,
      "Ġsup": 1096,
      "Ġarch": 1097,
      "Ġsearch": 1098,
      "Ġsynt": 1099,
      "Ġthen": 1100,
      "top": 1101,
      "Ġcontains": 1102,
      "Ġhealthy": 1103,
      "ĠWorld": 1104,
      "ET": 1105,
      "Ġear": 1106,
      "aph": 1107,
      "url": 1108,
      "Ġlike": 1109,
      "Ġmemory": 1110,
      "active": 1111,
      "Ġvalues": 1112,
      "ren": 1113,
      "arize": 1114,
      "ural": 1115,
      "Ġunder": 1116,
      "QL": 1117,
      "ping": 1118,
      "pression": 1119,
      "point": 1120,
      "ĠConf": 1121,
      "Ġsub": 1122,
      "ĠSp": 1123,
      "Ġdata": 1124,
      "Ġmus": 1125,
      "Ġtopic": 1126,
      "ĠSh": 1127,
      "ted": 1128,
      "Ġstart": 1129,
      "Ġbl": 1130,
      "Ġnew": 1131,
      "ĠHT": 1132,
      "Ġthese": 1133,
      "row": 1134,
      "Ġhow": 1135,
      "Ġfunctions": 1136,
      "ention": 1137,
      "outh": 1138,
      "Ġdocuments": 1139,
      "hesi": 1140,
      "ĠSQL": 1141,
      "rib": 1142,
      "Ġoperational": 1143,
      "],": 1144,
      "Ġscores": 1145,
      "ĠRead": 1146,
      "Ġdifferent": 1147,
      "Ġsyntax": 1148,
      "ĠCall": 1149,
      "Ġsummarize": 1150,
      "ĠHTTP": 1151,
      "ines": 1152,
      "Ġfound": 1153,
      "ĠNew": 1154,
      "Ġneed": 1155,
      "atched": 1156,
      "Ġduring": 1157,
      "urn": 1158,
      "Ġchun": 1159,
      "Ġadd": 1160,
      "Ġdeclar": 1161,
      "Ġfollowing": 1162,
      "Ġpub": 1163,
      "Ġtok": 1164,
      "Ġgame": 1165,
      "Ġimp": 1166,
      "ral": 1167,
      "ather": 1168,
      "Ġwon": 1169,
      "Ġdist": 1170,
      "Ġhttps": 1171,
      "Ġcontents": 1172,
      "Ġendpoint": 1173,
      "Ġfindings": 1174,
      "metic": 1175,
      "}}": 1176,
      "init": 1177,
      "Ġpol": 1178,
      "Ġbre": 1179,
      "itect": 1180,
      "ĠEng": 1181,
      "UP": 1182,
      "htt": 1183,
      "Ġser": 1184,
      "chool": 1185,
      "Ġthrough": 1186,
      "ĠFilter": 1187,
      "Ġtimeout": 1188,
      "spect": 1189,
      "Ġstructured": 1190,
      "Ġlearning": 1191,
      "Ġchunks": 1192,
      "http": 1193,
      "path": 1194,
      "ures": 1195,
      "ince": 1196,
      "Ġfilter": 1197,
      "Ġinst": 1198,
      "ĠSend": 1199,
      "etch": 1200,
      "adata": 1201,
      "ĠGET": 1202,
      "ĠOK": 1203,
      "ĠVerify": 1204,
      "timeout": 1205,
      "ĠExec": 1206,
      "ĠConfirm": 1207,
      "Fetch": 1208,
      "Search": 1209,
      "Service": 1210,
      "function": 1211,
      "ĠSynt": 1212,
      "Ġthresh": 1213,
      "ithmetic": 1214,
      "oci": 1215,
      "uptime": 1216,
      "Ġarithmetic": 1217,
      "6400": 1218,
      "Ġevalu": 1219,
      "Ġ86400": 1220,
      "Ġsimilarity": 1221,
      "forward": 1222,
      "hesize": 1223,
      "Ġthreshold": 1224,
      "Res": 1225,
      "code": 1226,
      "filter": 1227,
      "analy": 1228,
      "Ġretrieved": 1229,
      "Ġbeing": 1230,
      "Ġ2026": 1231,
      "Ġmetadata": 1232,
      "ĠSynthesize": 1233,
      "ah": 1234,
      "gt": 1235,
      "ork": 1236,
      "functions": 1237,
      "\"__": 1238,
      "\"],": 1239,
      "\"}}": 1240,
      "Comp": 1241,
      "ik": 1242,
      "Ġhigh": 1243,
      "ampion": 1244,
      "Inspect": 1245,
      "__\",": 1246,
      "Ġ{\"$": 1247,
      "Ġ[\"__": 1248,
      "parameters": 1249,
      "Ġdeclarations": 1250,
      "Ġtokens": 1251,
      "analyzer": 1252,
      "\"}}})": 1253,
      "Filter": 1254,
      "Matched": 1255,
      "created": 1256,
      "db": 1257,
      "2026": 1258,
      "ĠExecute": 1259,
      "Ġstud": 1260,
      "ife": 1261,
      "Ġbounds": 1262,
      "Ġboundary": 1263,
      "Ġcalculation": 1264,
      "Ġmade": 1265,
      "Ġwork": 1266,
      "Ġlanguage": 1267,
      "ove": 1268,
      "Ġ6": 1269,
      "Ġverify": 1270,
      "ative": 1271,
      "io": 1272,
      "expression": 1273,
      "Ġcalculator": 1274,
      "calcul": 1275,
      "Ġif": 1276,
      "ision": 1277,
      "eld": 1278,
      "iven": 1279,
      "Ġsecond": 1280,
      "Result": 1281,
      "calculator": 1282,
      "aut": 1283,
      "Ġevaluates": 1284,
      "Compute": 1285,
      "fore": 1286,
      "ism": 1287,
      "ished": 1288,
      "Ġmark": 1289,
      "Ġlead": 1290,
      "orth": 1291,
      "its": 1292,
      "very": 1293,
      "Ġcal": 1294,
      "Ġarchitect": 1295,
      "ĠLe": 1296,
      "Ġtrans": 1297,
      "ĠWar": 1298,
      "ually": 1299,
      "co": 1300,
      "tim": 1301,
      "ank": 1302,
      "fy": 1303,
      "enc": 1304,
      "Ġref": 1305,
      "tain": 1306,
      "Ġmillion": 1307,
      "Ġhum": 1308,
      "Ġvari": 1309,
      "Ġmain": 1310,
      "ĠFr": 1311,
      "Ġwhile": 1312,
      "ange": 1313,
      "Ġass": 1314,
      "Ġnumber": 1315,
      "ized": 1316,
      "Ġseason": 1317,
      "Ġagain": 1318,
      "ty": 1319,
      "atal": 1320,
      "Ġany": 1321,
      "Ġthree": 1322,
      "echn": 1323,
      "ner": 1324,
      "Ġcity": 1325,
      "Ġchar": 1326,
      "Ġcommon": 1327,
      "Ġshe": 1328,
      "Ġprocess": 1329,
      "ject": 1330,
      "ons": 1331,
      "ene": 1332,
      "Ġwater": 1333,
      "Ġrun": 1334,
      "Ġob": 1335,
      "Ġinf": 1336,
      "Ġrate": 1337,
      "ress": 1338,
      "ury": 1339,
      "Ġ198": 1340,
      "Ġsur": 1341,
      "rigin": 1342,
      "Ġhist": 1343,
      "ics": 1344,
      "af": 1345,
      "son": 1346,
      "enn": 1347,
      "Ġinv": 1348,
      "ember": 1349,
      "ĠJo": 1350,
      "ajor": 1351,
      "ility": 1352,
      "Ġpo": 1353,
      "Ġset": 1354,
      "Ġeff": 1355,
      "Ġke": 1356,
      "ĠGr": 1357,
      "ib": 1358,
      "Ġ9": 1359,
      "Ġstate": 1360,
      "Ġcre": 1361,
      "Ġboth": 1362,
      "ule": 1363,
      "Ġmake": 1364,
      "aking": 1365,
      "ple": 1366,
      "train": 1367,
      "ird": 1368,
      "ock": 1369,
      "ield": 1370,
      "Ġsk": 1371,
      "Ġget": 1372,
      "imes": 1373,
      "til": 1374,
      "ull": 1375,
      "Ġec": 1376,
      "ĠâĢĵ": 1377,
      "tical": 1378,
      "Ġpopular": 1379,
      "man": 1380,
      "Ġperson": 1381,
      "Ġown": 1382,
      "Ġexamp": 1383,
      "fic": 1384,
      "ale": 1385,
      "Ġrele": 1386,
      "ital": 1387,
      "elf": 1388,
      "ache": 1389,
      "Ġinclude": 1390,
      "ience": 1391,
      "raph": 1392,
      "tle": 1393,
      "Ġ7": 1394,
      "ety": 1395,
      "âĢĻ": 1396,
      "Ġincluding": 1397,
      "auth": 1398,
      "ĠWh": 1399,
      "cc": 1400,
      "Ġmin": 1401,
      "Ġperform": 1402,
      "Ġdesign": 1403,
      "iversity": 1404,
      "ink": 1405,
      "Ġoptim": 1406,
      "ĠUS": 1407,
      "Ġsmall": 1408,
      "bo": 1409,
      "lash": 1410,
      "Ġsing": 1411,
      "Ġaround": 1412,
      "der": 1413,
      "iver": 1414,
      "Ġshould": 1415,
      "sive": 1416,
      "Ġlong": 1417,
      "onfig": 1418,
      "oader": 1419,
      "12": 1420,
      "ok": 1421,
      "Ġtext": 1422,
      "iness": 1423,
      "Ġpoint": 1424,
      "Ġplayed": 1425,
      "Ġcalled": 1426,
      "Ġarchitecture": 1427,
      "bed": 1428,
      "config": 1429,
      "ys": 1430,
      "str": 1431,
      "Ġorigin": 1432,
      "Ġmajor": 1433,
      "Ġback": 1434,
      "datal": 1435,
      "Ġche": 1436,
      "dataloader": 1437,
      "ĠYou": 1438,
      "ina": 1439,
      "Ġsign": 1440,
      "Ġcould": 1441,
      "omet": 1442,
      "ouse": 1443,
      "Ġhel": 1444,
      "ampionsh": 1445,
      "na": 1446,
      "ves": 1447,
      "Ġfr": 1448,
      "uced": 1449,
      "llm": 1450,
      "models": 1451,
      "ved": 1452,
      "Ġfour": 1453,
      "Ġwar": 1454,
      "Ġinter": 1455,
      "Ġconsid": 1456,
      "inc": 1457,
      "trainer": 1458,
      "Ġbr": 1459,
      "Ġusing": 1460,
      "Ġparameters": 1461,
      "lish": 1462,
      "Ġbefore": 1463,
      "Ġbro": 1464,
      "Ġelect": 1465,
      "ĠSe": 1466,
      "api": 1467,
      "Ġcontr": 1468,
      "ootball": 1469,
      "Ġprom": 1470,
      "oup": 1471,
      "Ġrem": 1472,
      "Ġbel": 1473,
      "Ġcomple": 1474,
      "Ġeconom": 1475,
      "ris": 1476,
      "health": 1477,
      "Ġserv": 1478,
      "Ġvis": 1479,
      "Ġ196": 1480,
      "Ġseries": 1481,
      "ger": 1482,
      "ĠĊ": 1483,
      "Ġtechn": 1484,
      "Ġoften": 1485,
      "Ġbus": 1486,
      "akes": 1487,
      "ĠIndia": 1488,
      "ology": 1489,
      "iss": 1490,
      "omm": 1491,
      "Ġlaw": 1492,
      "Ġname": 1493,
      "Ġpower": 1494,
      "Ġmon": 1495,
      "Ġnat": 1496,
      "Ġsched": 1497,
      "ĠIndian": 1498,
      "Ġhome": 1499,
      "Ġbecause": 1500,
      "Ġred": 1501,
      "ross": 1502,
      "ĠSw": 1503,
      "ĠThey": 1504,
      "Ġ197": 1505,
      "ling": 1506,
      "tions": 1507,
      "ask": 1508,
      "ilm": 1509,
      "ĠPro": 1510,
      "ĠFor": 1511,
      "Ġearly": 1512,
      "Ġmusic": 1513,
      "az": 1514,
      "ware": 1515,
      "Ġpass": 1516,
      "ats": 1517,
      "Ġdid": 1518,
      "rid": 1519,
      "Ġ10": 1520,
      "Ġsport": 1521,
      "Ġbecame": 1522,
      "Ġtraining": 1523,
      "How": 1524,
      "\".": 1525,
      "ier": 1526,
      "pen": 1527,
      "ron": 1528,
      "ĠBe": 1529,
      "aving": 1530,
      "ious": 1531,
      "Ġsoc": 1532,
      "Ġest": 1533,
      "Ġgood": 1534,
      "ided": 1535,
      "vern": 1536,
      "ins": 1537,
      "Ġtop": 1538,
      "Ġhim": 1539,
      "Ġloc": 1540,
      "Ġincre": 1541,
      "uro": 1542,
      "Ġword": 1543,
      "Ġmed": 1544,
      "ĠCol": 1545,
      "other": 1546,
      "Ġadv": 1547,
      "Att": 1548,
      "Ġmy": 1549,
      "ĠAust": 1550,
      "Ġheads": 1551,
      "18": 1552,
      "Ġdire": 1553,
      "Ġpur": 1554,
      "Ġacc": 1555,
      "Who": 1556,
      "Ġbuild": 1557,
      "Ġmarket": 1558,
      "ĠSc": 1559,
      "Ġcompany": 1560,
      "Ġfamily": 1561,
      "Ġagainst": 1562,
      "Attention": 1563,
      "air": 1564,
      "ven": 1565,
      "Ġtri": 1566,
      "hest": 1567,
      "Ġdri": 1568,
      "Ġvery": 1569,
      "Ġcountry": 1570,
      "Ġoptimization": 1571,
      "QA": 1572,
      "eight": 1573,
      "Ġdown": 1574,
      "Ġgu": 1575,
      "Ġext": 1576,
      "gest": 1577,
      "lished": 1578,
      "oRA": 1579,
      "Ġsame": 1580,
      "Ġday": 1581,
      "Ġorgan": 1582,
      "lashAttention": 1583,
      "Ġfood": 1584,
      "Ġrequ": 1585,
      "Ġlife": 1586,
      "bers": 1587,
      "Ġrep": 1588,
      "Ġtying": 1589,
      "Ġschedule": 1590,
      "ck": 1591,
      "ee": 1592,
      "ĠAs": 1593,
      "side": 1594,
      "ference": 1595,
      "Ġembed": 1596,
      "ient": 1597,
      "Ġschool": 1598,
      "Ġhig": 1599,
      "ĠBl": 1600,
      "ages": 1601,
      "Ġplace": 1602,
      "Ġexper": 1603,
      "Ġpopul": 1604,
      "Ġlargest": 1605,
      "cache": 1606,
      "way": 1607,
      "ĠĠ": 1608,
      "Ġterm": 1609,
      "ĠUniversity": 1610,
      "Ġdoes": 1611,
      "ĠJohn": 1612,
      "Ġcur": 1613,
      "Ġcoun": 1614,
      "ĠHow": 1615,
      "Ġopen": 1616,
      "Ġimport": 1617,
      "Ġhuman": 1618,
      "here": 1619,
      "Ġsuc": 1620,
      "Ġway": 1621,
      "Ġallow": 1622,
      "osine": 1623,
      "ared": 1624,
      "Ġembedd": 1625,
      "PE": 1626,
      "gy": 1627,
      "Ġfive": 1628,
      "ĠRo": 1629,
      "ague": 1630,
      "ential": 1631,
      "ium": 1632,
      "iew": 1633,
      "ering": 1634,
      "ley": 1635,
      "Ġlast": 1636,
      "Ġcontin": 1637,
      "10": 1638,
      "Ġwrit": 1639,
      "vest": 1640,
      "ĠMar": 1641,
      "Ġevent": 1642,
      "han": 1643,
      "ym": 1644,
      "Ġdr": 1645,
      "amm": 1646,
      "Ġeng": 1647,
      "Ġproduct": 1648,
      "amed": 1649,
      "une": 1650,
      "ĠPl": 1651,
      "ler": 1652,
      "Ġevery": 1653,
      "Ġprof": 1654,
      "Ġappro": 1655,
      "Ġembeddings": 1656,
      "ced": 1657,
      "ĠGerm": 1658,
      "everal": 1659,
      "ĠZ": 1660,
      "Ġav": 1661,
      "ants": 1662,
      "ĠEuro": 1663,
      "rick": 1664,
      "Ġfilm": 1665,
      "Ġmod": 1666,
      "Ġuntil": 1667,
      "Ġpublic": 1668,
      "Ġbi": 1669,
      "Ġele": 1670,
      "ĠPh": 1671,
      "Ġ194": 1672,
      "Ġgreat": 1673,
      "eb": 1674,
      "tiv": 1675,
      "Ġcare": 1676,
      "ective": 1677,
      "ĠCl": 1678,
      "ands": 1679,
      "Ġbusiness": 1680,
      "eng": 1681,
      "Ġ12": 1682,
      "por": 1683,
      "Ġtake": 1684,
      "ession": 1685,
      "ĠIs": 1686,
      "ĠWest": 1687,
      "Ġ195": 1688,
      "Ġsince": 1689,
      "assi": 1690,
      "ions": 1691,
      "Ġgovern": 1692,
      "Ġinstru": 1693,
      "Ġinfl": 1694,
      "ness": 1695,
      "Ġseveral": 1696,
      "Ġfact": 1697,
      "riti": 1698,
      "Ġlater": 1699,
      "ows": 1700,
      "cept": 1701,
      "Ġpartic": 1702,
      "bum": 1703,
      "Ġ$": 1704,
      "hern": 1705,
      "Ġpri": 1706,
      "ality": 1707,
      "Ġmuch": 1708,
      "ĠAd": 1709,
      "ĠAt": 1710,
      "ĠCal": 1711,
      "Ġcons": 1712,
      "ency": 1713,
      "Ġhistory": 1714,
      "Ġed": 1715,
      "Ġair": 1716,
      "Ġtit": 1717,
      "olf": 1718,
      "ĠEnglish": 1719,
      "vers": 1720,
      "ream": 1721,
      "rod": 1722,
      "sible": 1723,
      "Ġarea": 1724,
      "ĠGre": 1725,
      "ĠEurope": 1726,
      "ars": 1727,
      "ised": 1728,
      "Ġequ": 1729,
      "Ġdog": 1730,
      "Ġgrow": 1731,
      "Ġhelp": 1732,
      "pos": 1733,
      "Ġcor": 1734,
      "ately": 1735,
      "ended": 1736,
      "arth": 1737,
      "ict": 1738,
      "Ġrace": 1739,
      "cer": 1740,
      "the": 1741,
      "ĠAf": 1742,
      "Ġgl": 1743,
      "Ġpres": 1744,
      "ĠNorth": 1745,
      "Ġled": 1746,
      "ired": 1747,
      "Ġann": 1748,
      "ĠHar": 1749,
      "Ġact": 1750,
      "Which": 1751,
      "Ġcentury": 1752,
      "Ġbegan": 1753,
      "ody": 1754,
      "ived": 1755,
      "Ġdesc": 1756,
      "ampionship": 1757,
      "11": 1758,
      "ends": 1759,
      "ases": 1760,
      "sia": 1761,
      "Ġalbum": 1762,
      "Ġcomput": 1763,
      "Ġdisc": 1764,
      "Ġimportant": 1765,
      "by": 1766,
      "ek": 1767,
      "ips": 1768,
      "pri": 1769,
      "Ġent": 1770,
      "ined": 1771,
      "Ġrece": 1772,
      "ĠNational": 1773,
      "uction": 1774,
      "Ġsong": 1775,
      "amb": 1776,
      "ĠThere": 1777,
      "Ġchild": 1778,
      "sident": 1779,
      "rent": 1780,
      "ices": 1781,
      "ĠSouth": 1782,
      "ĠTr": 1783,
      "Ġ2022": 1784,
      "Ġprim": 1785,
      "'t": 1786,
      "ai": 1787,
      "Ġocc": 1788,
      "ission": 1789,
      "ĠAustral": 1790,
      "ĠHowever": 1791,
      "line": 1792,
      "wards": 1793,
      "Ġaddition": 1794,
      "Ġsomet": 1795,
      "ĠCan": 1796,
      "Ġprev": 1797,
      "Ġcommun": 1798,
      "ternational": 1799,
      "Ġright": 1800,
      "Ġposi": 1801,
      "Th": 1802,
      "Ġi": 1803,
      "Ġdet": 1804,
      "apan": 1805,
      "ĠCon": 1806,
      "ĠCity": 1807,
      "ĠPr": 1808,
      "Ġexample": 1809,
      "hip": 1810,
      "Ġsl": 1811,
      "Ġfield": 1812,
      "Ġshort": 1813,
      "ored": 1814,
      "Ġdirect": 1815,
      "ape": 1816,
      "Ġtrad": 1817,
      "entify": 1818,
      "Ġmodels": 1819,
      "Ġpoli": 1820,
      "ritish": 1821,
      "Ph": 1822,
      "iet": 1823,
      "ane": 1824,
      "ese": 1825,
      "ĠAll": 1826,
      "Ġgames": 1827,
      "Ġcond": 1828,
      "agraph": 1829,
      "Ġexpl": 1830,
      "Ġsuccess": 1831,
      "Ġengine": 1832,
      "14": 1833,
      "acter": 1834,
      "Ġwithin": 1835,
      "Ġdep": 1836,
      "Ġsocial": 1837,
      "ior": 1838,
      "ring": 1839,
      "Ġold": 1840,
      "ature": 1841,
      "Ġinvest": 1842,
      "esp": 1843,
      "ries": 1844,
      "pically": 1845,
      "ĠAmerica": 1846,
      "ĠAfric": 1847,
      "Ġve": 1848,
      "Ġtest": 1849,
      "ination": 1850,
      "arm": 1851,
      "Ġmust": 1852,
      "Ġ17": 1853,
      "Ġleg": 1854,
      "Ġgroup": 1855,
      "Given": 1856,
      "eor": 1857,
      "Ġid": 1858,
      "Ġcult": 1859,
      "Ġcaus": 1860,
      "Ġparagraph": 1861,
      ".\"": 1862,
      "cle": 1863,
      "ept": 1864,
      "Ġeven": 1865,
      "formation": 1866,
      "br": 1867,
      "ales": 1868,
      "Ġfall": 1869,
      "oman": 1870,
      "Ġ14": 1871,
      "ĠBritish": 1872,
      "ability": 1873,
      "ĠSan": 1874,
      "Ġnamed": 1875,
      "ĠDe": 1876,
      "ours": 1877,
      "ĠYork": 1878,
      "Ġnatural": 1879,
      "oll": 1880,
      "Ġhand": 1881,
      "Ġanim": 1882,
      "tries": 1883,
      "Why": 1884,
      "Ġplayer": 1885,
      "eti": 1886,
      "ga": 1887,
      "iam": 1888,
      "read": 1889,
      "Ġgiven": 1890,
      "Ġhard": 1891,
      "ctions": 1892,
      "Ġcapital": 1893,
      "Ġmove": 1894,
      "ĠOr": 1895,
      "Ġshow": 1896,
      "Ġperc": 1897,
      "ancial": 1898,
      "Ġfinal": 1899,
      "ugust": 1900,
      "Ġsw": 1901,
      "Ġsaf": 1902,
      "ither": 1903,
      "Ġnear": 1904,
      "aces": 1905,
      "Ġjust": 1906,
      "Ġteams": 1907,
      "Ġsupport": 1908,
      "Ġreleased": 1909,
      "Ro": 1910,
      "cl": 1911,
      "asks": 1912,
      "Ġwant": 1913,
      "ilt": 1914,
      "Ġoffic": 1915,
      "Ġtour": 1916,
      "eder": 1917,
      "Ġrest": 1918,
      "ĠAm": 1919,
      "Ġhaving": 1920,
      "Ġprogr": 1921,
      "etw": 1922,
      "ump": 1923,
      "Ġlevel": 1924,
      "Ġcompeti": 1925,
      "Ġsingle": 1926,
      "Ġvisit": 1927,
      "Ġcountries": 1928,
      "ike": 1929,
      "ned": 1930,
      "Ġpos": 1931,
      "Ġret": 1932,
      "Ġ193": 1933,
      "lands": 1934,
      "ploy": 1935,
      "Ġdevelopment": 1936,
      "Ġinvol": 1937,
      "bs": 1938,
      "iqu": 1939,
      "Ġtasks": 1940,
      "Ġball": 1941,
      "Ġthose": 1942,
      "Ġ13": 1943,
      "iforn": 1944,
      "Ġround": 1945,
      "Ġmov": 1946,
      "Ġcontrol": 1947,
      "Phone": 1948,
      "eptember": 1949,
      "day": 1950,
      "now": 1951,
      "erest": 1952,
      "ĠDec": 1953,
      "Ġbecome": 1954,
      "tract": 1955,
      "Ġassoci": 1956,
      "ties": 1957,
      "let": 1958,
      "Ġfew": 1959,
      "Ġfootball": 1960,
      "Ġbat": 1961,
      "ĠShe": 1962,
      "ĠCar": 1963,
      "ada": 1964,
      "ĠMay": 1965,
      "Ġbeh": 1966,
      "Ġconf": 1967,
      "ĠJapan": 1968,
      "Ġmember": 1969,
      "Ġknow": 1970,
      "Ġconsidered": 1971,
      "ifornia": 1972,
      "Ġtre": 1973,
      "Ġlow": 1974,
      "ĠPre": 1975,
      "ĠEm": 1976,
      "Ġsoft": 1977,
      "Ġcolle": 1978,
      "Ġdescrib": 1979,
      "Cl": 1980,
      "ches": 1981,
      "ift": 1982,
      "Ġkm": 1983,
      "Ġcharacter": 1984,
      "Ġide": 1985,
      "Ġwid": 1986,
      "app": 1987,
      "Ġnational": 1988,
      "ĠFin": 1989,
      "Ġarti": 1990,
      "Give": 1991,
      "iod": 1992,
      "uly": 1993,
      "Ġanaly": 1994,
      "Ġlive": 1995,
      "Ġthird": 1996,
      "Ġgeneral": 1997,
      "ĠThese": 1998,
      "ected": 1999,
      "Ġalong": 2000,
      "iles": 2001,
      "ivil": 2002,
      "Ġclub": 2003,
      "Ġ2020": 2004,
      "Ġstring": 2005,
      "Ġspecific": 2006,
      "board": 2007,
      "aid": 2008,
      "Ġour": 2009,
      "Ġbody": 2010,
      "iter": 2011,
      "Ġdue": 2012,
      "ĠAugust": 2013,
      "Ġgen": 2014,
      "Ġlight": 2015,
      "ĠOn": 2016,
      "ivid": 2017,
      "ĠKing": 2018,
      "epar": 2019,
      "Ġprac": 2020,
      "Ġpopulation": 2021,
      "Ġprofession": 2022,
      "Ġgovernment": 2023,
      "13": 2024,
      "atic": 2025,
      "ially": 2026,
      "ann": 2027,
      "ending": 2028,
      "Ġmar": 2029,
      "Ġver": 2030,
      "Ġvarious": 2031,
      "Ġtimes": 2032,
      "Ġside": 2033,
      "Ġcir": 2034,
      "rop": 2035,
      "Ġgenerally": 2036,
      "ides": 2037,
      "Ġwithout": 2038,
      "Ġconn": 2039,
      "key": 2040,
      "Ġmean": 2041,
      "Ġclass": 2042,
      "Ġjo": 2043,
      "Ġtypically": 2044,
      "Ġamong": 2045,
      "200": 2046,
      "fer": 2047,
      "ently": 2048,
      "Ġheld": 2049,
      "Ġorder": 2050,
      "raft": 2051,
      "Ġcurrent": 2052,
      "yn": 2053,
      "iment": 2054,
      "Ġcr": 2055,
      "Ġcat": 2056,
      "rist": 2057,
      "els": 2058,
      "ocus": 2059,
      "ĠHis": 2060,
      "Ġusually": 2061,
      "Ġinflu": 2062,
      "17": 2063,
      "born": 2064,
      "fact": 2065,
      "ues": 2066,
      "ËĪ": 2067,
      "even": 2068,
      "Ġ16": 2069,
      "acing": 2070,
      "ĠChina": 2071,
      "Ġindust": 2072,
      "Ġspecies": 2073,
      "RAG": 2074,
      "ĠCalifornia": 2075,
      "201": 2076,
      "Weight": 2077,
      "but": 2078,
      "iev": 2079,
      "ĠAnd": 2080,
      "ung": 2081,
      "There": 2082,
      "oney": 2083,
      "Ġperiod": 2084,
      "Ġintrod": 2085,
      "FlashAttention": 2086,
      "GQA": 2087,
      "LoRA": 2088,
      "ole": 2089,
      "Ã©": 2090,
      "lear": 2091,
      "Ġfri": 2092,
      "Ġreal": 2093,
      "sian": 2094,
      "ĠSeptember": 2095,
      "ĠCent": 2096,
      "ĠIf": 2097,
      "Ġstill": 2098,
      "ording": 2099,
      "less": 2100,
      "Ġobs": 2101,
      "ricket": 2102,
      "KV": 2103,
      "ĠQ": 2104,
      "Ġnon": 2105,
      "ĠEast": 2106,
      "ĠFranc": 2107,
      "20": 2108,
      "lor": 2109,
      "ense": 2110,
      "Ġcour": 2111,
      "Ġcities": 2112,
      "Ġsystems": 2113,
      "Ġformer": 2114,
      "Ġnow": 2115,
      "Ġsee": 2116,
      "Ġmembers": 2117,
      "Ġregion": 2118,
      "ĠLeague": 2119,
      "cto": 2120,
      "stand": 2121,
      "Ġsent": 2122,
      "Ġcost": 2123,
      "Ġmil": 2124,
      "Ġborn": 2125,
      "Ġeither": 2126,
      "ilities": 2127,
      "ĠBo": 2128,
      "ĠRus": 2129,
      "Ġproduced": 2130,
      "Ġphys": 2131,
      "Ġlocated": 2132,
      "pril": 2133,
      "ible": 2134,
      "Ġturn": 2135,
      "stit": 2136,
      "ories": 2137,
      "Ġmid": 2138,
      "Ġanother": 2139,
      "ĠCup": 2140,
      "ĠMarch": 2141,
      "ĠPri": 2142,
      "Ġvide": 2143,
      "Ġconsist": 2144,
      "ĠGo": 2145,
      "ects": 2146,
      "Ġless": 2147,
      "Ġ2021": 2148,
      "ney": 2149,
      "Ġimpro": 2150,
      "Ġmonth": 2151,
      "Ġoccur": 2152,
      "ĠiPhone": 2153,
      "ctober": 2154,
      "LM": 2155,
      "Ġage": 2156,
      "ini": 2157,
      "Ġinformation": 2158,
      "Ġdiv": 2159,
      "ĠSchool": 2160,
      "Ġnext": 2161,
      "acy": 2162,
      "Ġstand": 2163,
      "ogn": 2164,
      "Ġqual": 2165,
      "Ġpresent": 2166,
      "Cosine": 2167,
      "hod": 2168,
      "ufact": 2169,
      "alt": 2170,
      "Ġfocus": 2171,
      "Ġmag": 2172,
      "ussion": 2173,
      "ĠSup": 2174,
      "aur": 2175,
      "ids": 2176,
      "ĠGeor": 2177,
      "aves": 2178,
      "Ġinterest": 2179,
      "Ġpublished": 2180,
      "Ġrefer": 2181,
      "Ġprompt": 2182,
      "Ġmodern": 2183,
      "assify": 2184,
      "fied": 2185,
      "uff": 2186,
      "yd": 2187,
      "omin": 2188,
      "ĠMan": 2189,
      "Ġval": 2190,
      "ĠOctober": 2191,
      "Ġindivid": 2192,
      "Ġfeat": 2193,
      "Ġfamous": 2194,
      "Ġkey": 2195,
      "Ġelectric": 2196,
      "Ġhighest": 2197,
      "hor": 2198,
      "pes": 2199,
      "Ġtell": 2200,
      "Ġcamp": 2201,
      "Ġbook": 2202,
      "icy": 2203,
      "Ġexist": 2204,
      "ĠII": 2205,
      "Ġcomb": 2206,
      "Ġwhether": 2207,
      "ĠChampionship": 2208,
      "Ġtype": 2209,
      "RoPE": 2210,
      "ways": 2211,
      "arc": 2212,
      "Ġeas": 2213,
      "ĠAfter": 2214,
      "Ġ100": 2215,
      "Ġbegin": 2216,
      "ĠEd": 2217,
      "Ġdem": 2218,
      "ource": 2219,
      "Ġweight": 2220,
      "Ġquest": 2221,
      "Ġbetter": 2222,
      "Ġfinancial": 2223,
      "Ġbuilt": 2224,
      "Ġstudy": 2225,
      "Ch": 2226,
      "ey": 2227,
      "ges": 2228,
      "erial": 2229,
      "Ġways": 2230,
      "olution": 2231,
      "ĠApril": 2232,
      "ams": 2233,
      "Ġnetw": 2234,
      "resent": 2235,
      "Ġactiv": 2236,
      "Ġsignific": 2237,
      "ele": 2238,
      "gg": 2239,
      "Ġtem": 2240,
      "isco": 2241,
      "Ġmen": 2242,
      "Ġbase": 2243,
      "omen": 2244,
      "ĠComp": 2245,
      "iron": 2246,
      "ots": 2247,
      "ained": 2248,
      "ellow": 2249,
      "put": 2250,
      "Ġlate": 2251,
      "Ġland": 2252,
      "ateg": 2253,
      "Ġacross": 2254,
      "Ġmaterial": 2255,
      "Ġevents": 2256,
      "ief": 2257,
      "Ġdeveloped": 2258,
      "Ġpoints": 2259,
      "wh": 2260,
      "Ġsepar": 2261,
      "iction": 2262,
      "ĠMus": 2263,
      "ott": 2264,
      "Ġplayers": 2265,
      "Ġmanufact": 2266,
      "Ġtradition": 2267,
      "sw": 2268,
      "Ġach": 2269,
      "ony": 2270,
      "Ġsun": 2271,
      "Ġsix": 2272,
      "ences": 2273,
      "Ġmaking": 2274,
      "Ġtook": 2275,
      "ection": 2276,
      "ĠSome": 2277,
      "Ġproject": 2278,
      "Ġstre": 2279,
      "ĠRed": 2280,
      "ĠRep": 2281,
      "ĠGu": 2282,
      "osed": 2283,
      "Ġcompan": 2284,
      "Ġ2018": 2285,
      "Ġspecial": 2286,
      "Ġkeep": 2287,
      "aim": 2288,
      "ged": 2289,
      "my": 2290,
      "Ġaff": 2291,
      "Ġhold": 2292,
      "Ġra": 2293,
      "ĠOpen": 2294,
      "ĠJune": 2295,
      "ĠJuly": 2296,
      "Ġmethod": 2297,
      "Ġattack": 2298,
      "Ġserved": 2299,
      "Ġprofessional": 2300,
      "SA": 2301,
      "ĠâĢ": 2302,
      "erc": 2303,
      "Ġsit": 2304,
      "Ġfish": 2305,
      "Ġmoney": 2306,
      "Ġbillion": 2307,
      "ĠAss": 2308,
      "ĠCo": 2309,
      "oph": 2310,
      "Ġleft": 2311,
      "ĠOne": 2312,
      "bert": 2313,
      "rench": 2314,
      "Ġpassage": 2315,
      "Ġavail": 2316,
      "Ġcareer": 2317,
      "Ġvideo": 2318,
      "Ex": 2319,
      "rite": 2320,
      "Ġener": 2321,
      "anu": 2322,
      "Ġ11": 2323,
      "though": 2324,
      "ĠRiver": 2325,
      "ĠWhen": 2326,
      "ems": 2327,
      "illiam": 2328,
      "ublic": 2329,
      "ĠAustralia": 2330,
      "22": 2331,
      "hing": 2332,
      "mber": 2333,
      "of": 2334,
      "ration": 2335,
      "alk": 2336,
      "Ġcer": 2337,
      "Ġreport": 2338,
      "oming": 2339,
      "acks": 2340,
      "Ġview": 2341,
      "ĠHam": 2342,
      "Ġconso": 2343,
      "ists": 2344,
      "rict": 2345,
      "Ġenti": 2346,
      "Ġappear": 2347,
      "ological": 2348,
      "Ġestab": 2349,
      "Ġpercussion": 2350,
      "Classify": 2351,
      "gen": 2352,
      "sc": 2353,
      "Ġpot": 2354,
      "Ġpost": 2355,
      "Ġfre": 2356,
      "ĠApp": 2357,
      "ote": 2358,
      "ives": 2359,
      "iang": 2360,
      "ooks": 2361,
      "ances": 2362,
      "Ġprovide": 2363,
      "Ġprovided": 2364,
      "ĠFrance": 2365,
      "Ġoriginal": 2366,
      "Ġwords": 2367,
      "Ġtourna": 2368,
      "ĠDecember": 2369,
      "aste": 2370,
      "iving": 2371,
      "joy": 2372,
      "Ġfull": 2373,
      "Ġmight": 2374,
      "omb": 2375,
      "Ġdel": 2376,
      "Ġdays": 2377,
      "Ġhouse": 2378,
      "Ġlau": 2379,
      "Ġlos": 2380,
      "Ġthings": 2381,
      "augh": 2382,
      "Ġrad": 2383,
      "Ġweek": 2384,
      "ovember": 2385,
      "Ġeconomic": 2386,
      "Ġchildren": 2387,
      "From": 2388,
      "It": 2389,
      "dentify": 2390,
      "go": 2391,
      "oor": 2392,
      "pire": 2393,
      "uce": 2394,
      "yle": 2395,
      "Ġaward": 2396,
      "alf": 2397,
      "Ġtoo": 2398,
      "Ġband": 2399,
      "ĠSun": 2400,
      "Ġprot": 2401,
      "ĠComm": 2402,
      "ĠMc": 2403,
      "Ġ30": 2404,
      "ources": 2405,
      "exic": 2406,
      "Ġtrave": 2407,
      "Ġmeas": 2408,
      "Ġimm": 2409,
      "Ġexamples": 2410,
      "Ġsports": 2411,
      "Ġpolitical": 2412,
      "Ġsoftware": 2413,
      "uel": 2414,
      "Ġ&": 2415,
      "Ġstep": 2416,
      "Ġcell": 2417,
      "Ġreference": 2418,
      "Ġpred": 2419,
      "ĠPer": 2420,
      "ĠNovember": 2421,
      "Ġaccount": 2422,
      "Ġchang": 2423,
      "ago": 2424,
      "intend": 2425,
      "Ġtypes": 2426,
      "Ġdifference": 2427,
      "inese": 2428,
      "Ġdistrib": 2429,
      "Ġcommonly": 2430,
      "Ġrunning": 2431,
      "ĠWhile": 2432,
      "ridge": 2433,
      "Ġparticular": 2434,
      "Ġsignificant": 2435,
      "ules": 2436,
      "Ġer": 2437,
      "Ġten": 2438,
      "Ġsound": 2439,
      "Ġsug": 2440,
      "Ġcivil": 2441,
      "asing": 2442,
      "Ġresearch": 2443,
      "stead": 2444,
      "itary": 2445,
      "ically": 2446,
      "Ġgive": 2447,
      "Ġlocal": 2448,
      "Ġconc": 2449,
      "ĠLLM": 2450,
      "iled": 2451,
      "ograph": 2452,
      "Ġemploy": 2453,
      "Ġbuilding": 2454,
      "Ġproducts": 2455,
      "ĠGermany": 2456,
      "Ġassociated": 2457,
      "Ġenergy": 2458,
      "anuary": 2459,
      "',": 2460,
      "St": 2461,
      "ones": 2462,
      "Ġpay": 2463,
      "Ġsouth": 2464,
      "atch": 2465,
      "Ġflow": 2466,
      "Ġwest": 2467,
      "Ġbas": 2468,
      "itar": 2469,
      "Ġdev": 2470,
      "Ġvill": 2471,
      "Ġrange": 2472,
      "Ġdeath": 2473,
      "outhern": 2474,
      "Ġstarted": 2475,
      "cy": 2476,
      "Ġput": 2477,
      "Ġread": 2478,
      "aper": 2479,
      "ĠCor": 2480,
      "ades": 2481,
      "aster": 2482,
      "Ġsci": 2483,
      "Ġclim": 2484,
      "Ġtele": 2485,
      "Ġtrained": 2486,
      "Ġvariety": 2487,
      "ĠSega": 2488,
      "Ġcontinu": 2489,
      "Ġcomputer": 2490,
      "Ġobserv": 2491,
      "gre": 2492,
      "ma": 2493,
      "oto": 2494,
      "ensive": 2495,
      "Ġfur": 2496,
      "Ġinternational": 2497,
      "echan": 2498,
      "Ġnorth": 2499,
      "aced": 2500,
      "ĠMe": 2501,
      "Ġwhite": 2502,
      "Ġartic": 2503,
      "Ġresults": 2504,
      "ondon": 2505,
      "Ġgoal": 2506,
      "Ġnovel": 2507,
      "Ġhistor": 2508,
      "ĠPhil": 2509,
      "Ġposition": 2510,
      "ĠAfrica": 2511,
      "Ġmeaning": 2512,
      "15": 2513,
      "37": 2514,
      "AG": 2515,
      "Identify": 2516,
      "ban": 2517,
      "eed": 2518,
      "ply": 2519,
      "Ġaud": 2520,
      "Ġsqu": 2521,
      "Ġcy": 2522,
      "att": 2523,
      "oring": 2524,
      "Ġfru": 2525,
      "Ġhot": 2526,
      "ĠPe": 2527,
      "Ġris": 2528,
      "ĠJanuary": 2529,
      "Ġart": 2530,
      "ians": 2531,
      "Ġdefe": 2532,
      "achine": 2533,
      "ĠPark": 2534,
      "Ġothers": 2535,
      "Ġamount": 2536,
      "ĠEngland": 2537,
      "Ġcreate": 2538,
      "Ġperformance": 2539,
      "Ġintroduced": 2540,
      "Ġindividual": 2541,
      "Ġcompanies": 2542,
      "Tell": 2543,
      "self": 2544,
      "wide": 2545,
      "ald": 2546,
      "Ġcri": 2547,
      "Ġmakes": 2548,
      "Ġbul": 2549,
      "rown": 2550,
      "Ġpresident": 2551,
      "ĠEl": 2552,
      "Ġrecogn": 2553,
      "Ġargu": 2554,
      "Ġspace": 2555,
      "Ġscience": 2556,
      "Ġproduction": 2557,
      "Ġglob": 2558,
      "mit": 2559,
      "Ġmechan": 2560,
      "urch": 2561,
      "ĠMich": 2562,
      "ĠLondon": 2563,
      "ĠDav": 2564,
      "ĠJames": 2565,
      "ashing": 2566,
      "Ġproduc": 2567,
      "Ġimpact": 2568,
      "Ġdesigned": 2569,
      "struct": 2570,
      "Ġrepresent": 2571,
      "ĠPlay": 2572,
      "Ġsometimes": 2573,
      "Ġmovie": 2574,
      "intendo": 2575,
      "ption": 2576,
      "inist": 2577,
      "stru": 2578,
      "Ġwind": 2579,
      "Ġbig": 2580,
      "omes": 2581,
      "ried": 2582,
      "urity": 2583,
      "ĠFootball": 2584,
      "ĠFrench": 2585,
      "lym": 2586,
      "ably": 2587,
      "uck": 2588,
      "Ġclose": 2589,
      "iverse": 2590,
      "Ġfounded": 2591,
      "Ġbreak": 2592,
      "Ġannoun": 2593,
      "bre": 2594,
      "dle": 2595,
      "ires": 2596,
      "la": 2597,
      "wik": 2598,
      "Ã¡": 2599,
      "icro": 2600,
      "Ġgolf": 2601,
      "ĠEarth": 2602,
      "ills": 2603,
      "raw": 2604,
      "Ġ2017": 2605,
      "play": 2606,
      "199": 2607,
      "Ġtechnology": 2608,
      "Ġreceived": 2609,
      "ĠCanada": 2610,
      "Ġpossible": 2611,
      "Ġartist": 2612,
      "ĠFrancisco": 2613,
      "When": 2614,
      "ef": 2615,
      "Ġable": 2616,
      "ston": 2617,
      "imately": 2618,
      "Ġfree": 2619,
      "Ġel": 2620,
      "ama": 2621,
      "Ġlo": 2622,
      "utions": 2623,
      "ached": 2624,
      "ĠMo": 2625,
      "abor": 2626,
      "ĠChinese": 2627,
      "Ġmanage": 2628,
      "Ġunderstand": 2629,
      "Ġsmaller": 2630,
      "Ġestim": 2631,
      "Ġhigher": 2632,
      "Ġexperience": 2633,
      "ĠEuropean": 2634,
      "ael": 2635,
      "ino": 2636,
      "Ġwide": 2637,
      "Ġmiles": 2638,
      "Ġdied": 2639,
      "ĠSer": 2640,
      "ĠMexic": 2641,
      "Ġcontri": 2642,
      "ĠGold": 2643,
      "Ġlet": 2644,
      "ĠJe": 2645,
      "Ġstrong": 2646,
      "Ġ2010": 2647,
      "ruary": 2648,
      "ĠGrand": 2649,
      "Ġconsider": 2650,
      "Ġservices": 2651,
      "ĠGerman": 2652,
      "ebruary": 2653,
      "Ġgrowth": 2654,
      "Ġprevious": 2655,
      "ederal": 2656,
      "Ġestablished": 2657,
      "AT": 2658,
      "An": 2659,
      "Ġter": 2660,
      "Ġtar": 2661,
      "inct": 2662,
      "esc": 2663,
      "Ġeast": 2664,
      "eter": 2665,
      "ĠTw": 2666,
      "Ġpress": 2667,
      "ĠBut": 2668,
      "ĠNintendo": 2669,
      "verage": 2670,
      "Ġleast": 2671,
      "ellig": 2672,
      "ĠState": 2673,
      "ffee": 2674,
      "Ġenjoy": 2675,
      "ieve": 2676,
      "Ġregard": 2677,
      "Ġfeel": 2678,
      "Ġwritten": 2679,
      "Ġinstrument": 2680,
      "Ġtitle": 2681,
      "Ġprimary": 2682,
      "Ġreturn": 2683,
      "Ġwidely": 2684,
      "struction": 2685,
      "82": 2686,
      "be": 2687,
      "most": 2688,
      "viron": 2689,
      "west": 2690,
      "Ġfore": 2691,
      "Ġet": 2692,
      "Ġareas": 2693,
      "Ġlost": 2694,
      "adem": 2695,
      "ĠFlashAttention": 2696,
      "ĠRes": 2697,
      "ĠRAG": 2698,
      "ĠGQA": 2699,
      "ĠLoRA": 2700,
      "ĠDay": 2701,
      "ival": 2702,
      "âĢĿ": 2703,
      "Ġtry": 2704,
      "Ġsummer": 2705,
      "ĠChic": 2706,
      "Ġliving": 2707,
      "Ġapplic": 2708,
      "Ġrock": 2709,
      "Ġregul": 2710,
      "Ġfeet": 2711,
      "Ġhumans": 2712,
      "Ġrequire": 2713,
      "Ġdogs": 2714,
      "Ġculture": 2715,
      "aff": 2716,
      "Ġste": 2717,
      "Ġur": 2718,
      "Ġservice": 2719,
      "Ġtheory": 2720,
      "Ġcame": 2721,
      "Ġmount": 2722,
      "Ġrev": 2723,
      "itation": 2724,
      "ush": 2725,
      "Ġhours": 2726,
      "Ġiss": 2727,
      "ĠSch": 2728,
      "Ġlim": 2729,
      "thing": 2730,
      "atest": 2731,
      "ĠWeight": 2732,
      "orthern": 2733,
      "âĢĶ": 2734,
      "avor": 2735,
      "oose": 2736,
      "Ġsuper": 2737,
      "Ġsuccessful": 2738,
      "Ġswim": 2739,
      "Ġanalys": 2740,
      "Ġversion": 2741,
      "Ġlaun": 2742,
      "50": 2743,
      "BA": 2744,
      "eal": 2745,
      "uning": 2746,
      "Ġesp": 2747,
      "ster": 2748,
      "arily": 2749,
      "Ġsize": 2750,
      "anch": 2751,
      "Ġcricket": 2752,
      "lex": 2753,
      "ison": 2754,
      "Ġfire": 2755,
      "Ġegg": 2756,
      "ĠTe": 2757,
      "Ġstates": 2758,
      "ĠFebruary": 2759,
      "sequ": 2760,
      "Ġwhy": 2761,
      "ĠWe": 2762,
      "Ġalways": 2763,
      "ĠDis": 2764,
      "ude": 2765,
      "ĠKV": 2766,
      "Ġworks": 2767,
      "gether": 2768,
      "Ġtechniqu": 2769,
      "ĠColle": 2770,
      "Ġeduc": 2771,
      "Ġtournament": 2772,
      "Ġtarget": 2773,
      "72": 2774,
      "iol": 2775,
      "iec": 2776,
      "Ġself": 2777,
      "Ġmass": 2778,
      "Ġreach": 2779,
      "Ġban": 2780,
      "Ġep": 2781,
      "ĠAir": 2782,
      "Ġprote": 2783,
      "Ġauthor": 2784,
      "Ġrank": 2785,
      "Ġplat": 2786,
      "Ġyoung": 2787,
      "Ġenviron": 2788,
      "Ġdecision": 2789,
      "Ġ2011": 2790,
      "Ġindustry": 2791,
      "ĠSuper": 2792,
      "Ġavailable": 2793,
      "face": 2794,
      "gent": 2795,
      "ta": 2796,
      "Ġtask": 2797,
      "erous": 2798,
      "tice": 2799,
      "Ġoil": 2800,
      "attle": 2801,
      "Ġfather": 2802,
      "Ġtogether": 2803,
      "Ġiniti": 2804,
      "ĠSec": 2805,
      "ĠCosine": 2806,
      "aches": 2807,
      "cean": 2808,
      "umb": 2809,
      "ified": 2810,
      "Ġcommer": 2811,
      "abet": 2812,
      "Ġchange": 2813,
      "Ġcompet": 2814,
      "Ġseen": 2815,
      "Ġgoing": 2816,
      "Ġlarger": 2817,
      "Ġformat": 2818,
      "Ġblack": 2819,
      "Ġprocessing": 2820,
      "ennis": 2821,
      "Ġtitles": 2822,
      "Ġcommunic": 2823,
      "Ġdeterm": 2824,
      "Ġnetwork": 2825,
      "lympic": 2826,
      ".,": 2827,
      "dom": 2828,
      "lam": 2829,
      "not": 2830,
      "nder": 2831,
      "Ġfund": 2832,
      "Ġbooks": 2833,
      "Ġdon": 2834,
      "icient": 2835,
      "Ġhost": 2836,
      "ĠMor": 2837,
      "Ġheav": 2838,
      "ĠWilliam": 2839,
      "empt": 2840,
      "asters": 2841,
      "ube": 2842,
      "ustom": 2843,
      "Ġincluded": 2844,
      "Ġcoll": 2845,
      "Ġcolor": 2846,
      "Ġlearn": 2847,
      "Ġmanag": 2848,
      "Ġincrease": 2849,
      "Ġpurch": 2850,
      "ĠRoPE": 2851,
      "Ġvalue": 2852,
      "Ġcertain": 2853,
      "Ġscienti": 2854,
      "ashington": 2855,
      "16": 2856,
      "30": 2857,
      "87": 2858,
      "He": 2859,
      "action": 2860,
      "col": 2861,
      "li": 2862,
      "tor": 2863,
      "Ġ=": 2864,
      "Ġ{": 2865,
      "Ġpat": 2866,
      "Ġport": 2867,
      "Ġsales": 2868,
      "Ġseven": 2869,
      "ana": 2870,
      "eds": 2871,
      "Ġproper": 2872,
      "Ġlower": 2873,
      "Ġplant": 2874,
      "Ġautom": 2875,
      "Ġmultiple": 2876,
      "Ġconcept": 2877,
      "ĠLa": 2878,
      "tics": 2879,
      "Ġkil": 2880,
      "Ġ2007": 2881,
      "ooking": 2882,
      "Ġleading": 2883,
      "Ġbrother": 2884,
      "Ġterms": 2885,
      "ĠGeorge": 2886,
      "ĠAssoci": 2887,
      "Ġanalysis": 2888,
      "che": 2889,
      "rup": 2890,
      "sel": 2891,
      "ux": 2892,
      "Ġaway": 2893,
      "Ġsnow": 2894,
      "Ġcause": 2895,
      "Ġcustom": 2896,
      "Ġmix": 2897,
      "Ġrepl": 2898,
      "ĠAc": 2899,
      "Ġgas": 2900,
      "Ġansw": 2901,
      "appen": 2902,
      "ĠTom": 2903,
      "ĠTour": 2904,
      "Ġline": 2905,
      "ado": 2906,
      "Ġ21": 2907,
      "ĠBr": 2908,
      "ĠBill": 2909,
      "ĠRoman": 2910,
      "Ġran": 2911,
      "ops": 2912,
      "Ġ192": 2913,
      "Ġcompon": 2914,
      "epend": 2915,
      "Ġplaying": 2916,
      "Ġground": 2917,
      "Ġrot": 2918,
      "Ġquick": 2919,
      "Ġdiffic": 2920,
      "Ġgreen": 2921,
      "Ġcars": 2922,
      "Ġadditional": 2923,
      "Ġcaused": 2924,
      "Ġquestion": 2925,
      "..": 2926,
      "57": 2927,
      "92": 2928,
      "On": 2929,
      "light": 2930,
      "rs": 2931,
      "vision": 2932,
      "wood": 2933,
      "Ġz": 2934,
      "Ġsand": 2935,
      "Ġcase": 2936,
      "edi": 2937,
      "ĠSo": 2938,
      "ilton": 2939,
      "Ġnuc": 2940,
      "ĠDo": 2941,
      "Ġcome": 2942,
      "Ġ190": 2943,
      "ĠOlympic": 2944,
      "Ġrelations": 2945,
      "ociety": 2946,
      "Ġfactors": 2947,
      "Ġidenti": 2948,
      "Ġbehav": 2949,
      "Ġmilitary": 2950,
      "Ġconsole": 2951,
      "ĠCollege": 2952,
      "52": 2953,
      "As": 2954,
      "cial": 2955,
      "lon": 2956,
      "ret": 2957,
      "rew": 2958,
      "Ġpain": 2959,
      "Ġsaid": 2960,
      "Ġcats": 2961,
      "lease": 2962,
      "Ġhalf": 2963,
      "add": 2964,
      "Ġsold": 2965,
      "Ġ22": 2966,
      "ĠBy": 2967,
      "ĠBar": 2968,
      "Ġoutside": 2969,
      "Ġfollowed": 2970,
      "oviet": 2971,
      "Ġhowever": 2972,
      "Ġneeded": 2973,
      "ficial": 2974,
      "ampionships": 2975,
      "Ġeconomy": 2976,
      "Ġmonths": 2977,
      "ĠApple": 2978,
      "ĠMexico": 2979,
      "Ġetc": 2980,
      "ae": 2981,
      "hi": 2982,
      "lin": 2983,
      "ners": 2984,
      "oid": 2985,
      "utive": 2986,
      "vate": 2987,
      "anish": 2988,
      "edia": 2989,
      "Ġfar": 2990,
      "Ġmi": 2991,
      "Ġbene": 2992,
      "ecially": 2993,
      "Ġever": 2994,
      "Ġdi": 2995,
      "ĠAward": 2996,
      "ille": 2997,
      "Ġnight": 2998,
      "ĠHigh": 2999,
      "ĠWashington": 3000,
      "hers": 3001,
      "Ġrather": 3002,
      "ĠEn": 3003,
      "Ġdeep": 3004,
      "Ġitems": 3005,
      "ister": 3006,
      "ards": 3007,
      "Ġresources": 3008,
      "aken": 3009,
      "Ġ2009": 3010,
      "ifying": 3011,
      "Ġ2016": 3012,
      "Ġlik": 3013,
      "Ġworldwide": 3014,
      "Ġcomplex": 3015,
      "airs": 3016,
      "Ġsomething": 3017,
      "ieved": 3018,
      "Ġcourse": 3019,
      "Ġreferred": 3020,
      "Ġenvironment": 3021,
      "ĠAssociation": 3022,
      "42": 3023,
      "62": 3024,
      "ES": 3025,
      "PT": 3026,
      "ao": 3027,
      "field": 3028,
      "hol": 3029,
      "pro": 3030,
      "ÉĻ": 3031,
      "Ġpen": 3032,
      "Ġpast": 3033,
      "Ġsem": 3034,
      "anti": 3035,
      "Ġcry": 3036,
      "Ġbird": 3037,
      "Ġinstead": 3038,
      "utes": 3039,
      "ĠSm": 3040,
      "Ġlay": 3041,
      "Ġlif": 3042,
      "Ġplants": 3043,
      "Ġstay": 3044,
      "Ġstory": 3045,
      "ĠMark": 3046,
      "Ġracing": 3047,
      "astic": 3048,
      "elling": 3049,
      "arent": 3050,
      "Ġroom": 3051,
      "Ġquart": 3052,
      "Ġ1990": 3053,
      "Ġwinning": 3054,
      "Ġbread": 3055,
      "Ġobject": 3056,
      "Ġbelow": 3057,
      "Ġadvant": 3058,
      "Ġtemper": 3059,
      "Ġtraditional": 3060,
      "Ġtravel": 3061,
      "Ġfurther": 3062,
      "Ġrisk": 3063,
      "Ġannounced": 3064,
      "elligence": 3065,
      "aul": 3066,
      "off": 3067,
      "Ġcateg": 3068,
      "ato": 3069,
      "Ġft": 3070,
      "Ġwent": 3071,
      "ittle": 3072,
      "Ġeight": 3073,
      "ĠSen": 3074,
      "ĠSystem": 3075,
      "ĠRec": 3076,
      "ope": 3077,
      "Ġuses": 3078,
      "Ġkind": 3079,
      "Ġmeans": 3080,
      "Ġrole": 3081,
      "Ġprice": 3082,
      "Ġcoffee": 3083,
      "atist": 3084,
      "Ġattempt": 3085,
      "ccording": 3086,
      "Ġguitar": 3087,
      "ĠHarry": 3088,
      "Ġprimarily": 3089,
      "ĠRepublic": 3090,
      "ĠHamilton": 3091,
      "Ġcommercial": 3092,
      "67": 3093,
      "aign": 3094,
      "de": 3095,
      "eum": 3096,
      "ram": 3097,
      "za": 3098,
      "Ġuser": 3099,
      "reen": 3100,
      "tis": 3101,
      "itch": 3102,
      "Ġlook": 3103,
      "Ġnec": 3104,
      "Ġnever": 3105,
      "Ġvict": 3106,
      "ĠLiang": 3107,
      "ĠOff": 3108,
      "agon": 3109,
      "Ġoppos": 3110,
      "reek": 3111,
      "ĠUnion": 3112,
      "Ġ2012": 3113,
      "Ġroad": 3114,
      "Ġcolors": 3115,
      "Ġbuy": 3116,
      "ĠCounty": 3117,
      "Ġpersonal": 3118,
      "Ġrelease": 3119,
      "Ġmedia": 3120,
      "This": 3121,
      "Ġanimal": 3122,
      "ĠEmpire": 3123,
      "Ġcirc": 3124,
      "elebr": 3125,
      "bit": 3126,
      "gate": 3127,
      "lation": 3128,
      "Ġsource": 3129,
      "Ġbar": 3130,
      "Ġey": 3131,
      "Ġemer": 3132,
      "Ġhar": 3133,
      "ĠSoviet": 3134,
      "Ġlot": 3135,
      "Ġlove": 3136,
      "ĠChe": 3137,
      "Ġpresid": 3138,
      "Ġthought": 3139,
      "auti": 3140,
      "ables": 3141,
      "Ġnation": 3142,
      "alls": 3143,
      "Ġonce": 3144,
      "Ġstream": 3145,
      "ĠMary": 3146,
      "ĠBer": 3147,
      "Ġmoved": 3148,
      "ĠInternational": 3149,
      "ĠChar": 3150,
      "Ġabove": 3151,
      "raz": 3152,
      "ators": 3153,
      "Ġincludes": 3154,
      "anced": 3155,
      "Ġmaintain": 3156,
      "ength": 3157,
      "Ġanimals": 3158,
      "Ġsafe": 3159,
      "Ġimprove": 3160,
      "Extract": 3161,
      "Ġplatform": 3162,
      "97": 3163,
      "bor": 3164,
      "ki": 3165,
      "pr": 3166,
      "Ġaverage": 3167,
      "Ġtou": 3168,
      "Ġtend": 3169,
      "Ġpiec": 3170,
      "oud": 3171,
      "oups": 3172,
      "ises": 3173,
      "Ġfix": 3174,
      "Ġins": 3175,
      "Ġdise": 3176,
      "ros": 3177,
      "Ġhy": 3178,
      "Ġprob": 3179,
      "acific": 3180,
      "ĠMon": 3181,
      "ĠMount": 3182,
      "Ġvia": 3183,
      "ĠWith": 3184,
      "ĠLake": 3185,
      "Ġrain": 3186,
      "ĠDel": 3187,
      "igital": 3188,
      "aby": 3189,
      "Ġplaces": 3190,
      "ipp": 3191,
      "Ġweather": 3192,
      "Ġ2008": 3193,
      "Ġgrad": 3194,
      "Ġrow": 3195,
      "tention": 3196,
      "Ġ50": 3197,
      "ternal": 3198,
      "Ġ1980": 3199,
      "Ġcompetition": 3200,
      "Ġpractice": 3201,
      "ĠLLMs": 3202,
      "Ġtelevision": 3203,
      "32": 3204,
      "nal": 3205,
      "ture": 3206,
      "leep": 3207,
      "Ġtown": 3208,
      "itan": 3209,
      "vey": 3210,
      "Ġliter": 3211,
      "ĠCong": 3212,
      "irt": 3213,
      "ĠFrom": 3214,
      "ĠHer": 3215,
      "ĠWood": 3216,
      "ĠIts": 3217,
      "Ġpark": 3218,
      "Ġblue": 3219,
      "Ġbroad": 3220,
      "ĠĠĠĠ": 3221,
      "Ġveget": 3222,
      "Ġofficial": 3223,
      "Ġdescribed": 3224,
      "Ġbaseball": 3225,
      "ĠChicago": 3226,
      "Ġespecially": 3227,
      "hic": 3228,
      "ky": 3229,
      "Éª": 3230,
      "Ġcop": 3231,
      "Ġwood": 3232,
      "Ġresid": 3233,
      "ech": 3234,
      "ĠAsia": 3235,
      "Ġgene": 3236,
      "sition": 3237,
      "Ġexc": 3238,
      "ĠTV": 3239,
      "ĠMal": 3240,
      "ĠBay": 3241,
      "sem": 3242,
      "ĠGen": 3243,
      "ĠDist": 3244,
      "Ġdeb": 3245,
      "ĠNF": 3246,
      "ipedia": 3247,
      "Ġadm": 3248,
      "Ġens": 3249,
      "Ġ2019": 3250,
      "Ġgoals": 3251,
      "ails": 3252,
      "Ġforms": 3253,
      "Ġparts": 3254,
      "Ġgreatest": 3255,
      "Ġeffect": 3256,
      "Ġski": 3257,
      "ĠSwift": 3258,
      "Ġallows": 3259,
      "Ġrights": 3260,
      "Ġmovement": 3261,
      "ĠKingdom": 3262,
      "Ġdivision": 3263,
      "Ġactivities": 3264,
      "ĠâĢľ": 3265,
      "Ġvillage": 3266,
      "Ġglobal": 3267,
      "NSA": 3268,
      "jp": 3269,
      "like": 3270,
      "ming": 3271,
      "pose": 3272,
      "Ġess": 3273,
      "Ġtro": 3274,
      "inn": 3275,
      "inking": 3276,
      "stic": 3277,
      "Ġpick": 3278,
      "Ġsuff": 3279,
      "Ġreached": 3280,
      "room": 3281,
      "Ġforce": 3282,
      "Ġplanet": 3283,
      "ĠMid": 3284,
      "ĠPot": 3285,
      "ĠFl": 3286,
      "ander": 3287,
      "Ġrecomm": 3288,
      "osp": 3289,
      "ĠChrist": 3290,
      "Ġregular": 3291,
      "Ġstructure": 3292,
      "Ġphil": 3293,
      "Ġeffective": 3294,
      "Ġframe": 3295,
      "Ġfront": 3296,
      "asket": 3297,
      "Ġelements": 3298,
      "Ġparticip": 3299,
      "Ġprior": 3300,
      "Ġstandard": 3301,
      "Ġsitu": 3302,
      "Ġarticle": 3303,
      "Ġdifficult": 3304,
      "Ar": 3305,
      "OS": 3306,
      "part": 3307,
      "ran": 3308,
      "uries": 3309,
      "val": 3310,
      "Ġsym": 3311,
      "Ġcelebr": 3312,
      "issi": 3313,
      "Ġfun": 3314,
      "Ġbord": 3315,
      "Ġbank": 3316,
      "Ġinn": 3317,
      "Ġearth": 3318,
      "Ġge": 3319,
      "Ġhon": 3320,
      "Ġhor": 3321,
      "ether": 3322,
      "Ġstation": 3323,
      "Ġstatist": 3324,
      "ĠPol": 3325,
      "ĠBec": 3326,
      "ĠLat": 3327,
      "ĠLamb": 3328,
      "Ġrout": 3329,
      "ournal": 3330,
      "Ġchall": 3331,
      "tte": 3332,
      "Ġspend": 3333,
      "Ġrecorded": 3334,
      "Ġscore": 3335,
      "ĠItal": 3336,
      "Ġclaim": 3337,
      "Ġenough": 3338,
      "Ġregions": 3339,
      "Ġlonger": 3340,
      "Ġconditions": 3341,
      "Ġengineering": 3342,
      "Ġprogram": 3343,
      "Ġfeatures": 3344,
      "If": 3345,
      "ci": 3346,
      "com": 3347,
      "gon": 3348,
      "Ã¶": 3349,
      "inent": 3350,
      "onym": 3351,
      "Ġsn": 3352,
      "ala": 3353,
      "Ġfa": 3354,
      "Ġfine": 3355,
      "itor": 3356,
      "Ġdam": 3357,
      "Ġlab": 3358,
      "Ġprep": 3359,
      "Ġthink": 3360,
      "owl": 3361,
      "ĠMany": 3362,
      "aylor": 3363,
      "que": 3364,
      "ĠGame": 3365,
      "Ġaccess": 3366,
      "ĠOther": 3367,
      "izing": 3368,
      "Ġscale": 3369,
      "ava": 3370,
      "Ġabilities": 3371,
      "Ġsequ": 3372,
      "pical": 3373,
      "Ġgroups": 3374,
      "Ġthroughout": 3375,
      "Ġminutes": 3376,
      "incip": 3377,
      "Ġnature": 3378,
      "Ġcommunity": 3379,
      "ĠAfrican": 3380,
      "Ġidentify": 3381,
      "Ġsafety": 3382,
      "Ġidea": 3383,
      "Ġfriends": 3384,
      "ĠDavid": 3385,
      "Ġmanagement": 3386,
      "Ġestimated": 3387,
      "Ġlikely": 3388,
      "47": 3389,
      "oe": 3390,
      "over": 3391,
      "oke": 3392,
      "sy": 3393,
      "Ġtax": 3394,
      "ining": 3395,
      "imal": 3396,
      "arn": 3397,
      "alle": 3398,
      "ouble": 3399,
      "Ġcard": 3400,
      "orks": 3401,
      "Ġfer": 3402,
      "Ġfiction": 3403,
      "Ġwomen": 3404,
      "Ġbal": 3405,
      "Ġbit": 3406,
      "Ġinj": 3407,
      "Ġdone": 3408,
      "road": 3409,
      "sib": 3410,
      "aps": 3411,
      "ĠCap": 3412,
      "iding": 3413,
      "Ġvol": 3414,
      "Ġvac": 3415,
      "ĠFirst": 3416,
      "odern": 3417,
      "ĠDuring": 3418,
      "Ġdebut": 3419,
      "ĠNBA": 3420,
      "Ġleaves": 3421,
      "Ġchick": 3422,
      "ĠUK": 3423,
      "Ġcontain": 3424,
      "Ġkit": 3425,
      "ipment": 3426,
      "Ġitself": 3427,
      "ledge": 3428,
      "Ġ2014": 3429,
      "Ġbutter": 3430,
      "itiz": 3431,
      "Ġ189": 3432,
      "Ġformed": 3433,
      "Ġthemsel": 3434,
      "Ġparty": 3435,
      "ĠYear": 3436,
      "Ġinvolved": 3437,
      "Ġradio": 3438,
      "Ġbenef": 3439,
      "autiful": 3440,
      "jpg": 3441,
      "Ġthemselves": 3442,
      "Al": 3443,
      "Pro": 3444,
      "based": 3445,
      "ka": 3446,
      "round": 3447,
      "Ġesc": 3448,
      "reat": 3449,
      "heast": 3450,
      "orage": 3451,
      "Ġfig": 3452,
      "Ġbed": 3453,
      "usion": 3454,
      "ĠAct": 3455,
      "Ġ23": 3456,
      "ida": 3457,
      "ĠMost": 3458,
      "ĠMasters": 3459,
      "ĠNo": 3460,
      "Ġaccept": 3461,
      "exas": 3462,
      "Ġleague": 3463,
      "izations": 3464,
      "âĢ¢": 3465,
      "oga": 3466,
      "Ġ2004": 3467,
      "Ġ2013": 3468,
      "Ġquality": 3469,
      "ĠReg": 3470,
      "Ġsecurity": 3471,
      "Ġphoto": 3472,
      "Ġlanguages": 3473,
      "Ġstarting": 3474,
      "Ġdistance": 3475,
      "Ġruns": 3476,
      "Ġperformed": 3477,
      "Ġcheck": 3478,
      "ĠAdd": 3479,
      "ĠGreat": 3480,
      "Ġconduct": 3481,
      "Ġinfluence": 3482,
      "Ġeducation": 3483,
      "ĠCongress": 3484,
      "CA": 3485,
      "ER": 3486,
      "GA": 3487,
      "Write": 3488,
      "nown": 3489,
      "pon": 3490,
      "pto": 3491,
      "writ": 3492,
      "ximately": 3493,
      "ËĲ": 3494,
      "Ġswe": 3495,
      "Ġsaw": 3496,
      "Ġcut": 3497,
      "isc": 3498,
      "Ġfederal": 3499,
      "Ġmor": 3500,
      "Ġmachine": 3501,
      "rote": 3502,
      "ĠSing": 3503,
      "Ġthough": 3504,
      "ĠPort": 3505,
      "ĠPacific": 3506,
      "ĠHouse": 3507,
      "Ġrecent": 3508,
      "aged": 3509,
      "Ġscored": 3510,
      "Ġenc": 3511,
      "Ġjob": 3512,
      "Ġappl": 3513,
      "Ġappoint": 3514,
      "Ġupon": 3515,
      "ground": 3516,
      "Ġprovides": 3517,
      "Ġneeds": 3518,
      "Ġstudies": 3519,
      "azon": 3520,
      "Ġconsum": 3521,
      "Ġcorpor": 3522,
      "Ġenter": 3523,
      "ĠAustralian": 3524,
      "Ġvehic": 3525,
      "Ġprogramm": 3526,
      "ĠQu": 3527,
      "ĠDisney": 3528,
      "Where": 3529,
      "fin": 3530,
      "ses": 3531,
      "Ġtable": 3532,
      "rem": 3533,
      "onn": 3534,
      "aring": 3535,
      "Ġpal": 3536,
      "Ġpow": 3537,
      "Ġdomin": 3538,
      "ented": 3539,
      "rial": 3540,
      "Ġhit": 3541,
      "Ġlines": 3542,
      "Ġstop": 3543,
      "Ġstyle": 3544,
      "ership": 3545,
      "Ġask": 3546,
      "Ġbeautiful": 3547,
      "Ġheight": 3548,
      "Ġyellow": 3549,
      "Ġaltern": 3550,
      "istic": 3551,
      "Ġchampion": 3552,
      "Ġarc": 3553,
      "omestic": 3554,
      "Ġmatches": 3555,
      "Ġbox": 3556,
      "phy": 3557,
      "rency": 3558,
      "ĠSpain": 3559,
      "ĠEngine": 3560,
      "atively": 3561,
      "Ġeffects": 3562,
      "ronic": 3563,
      "Ġtrip": 3564,
      "Ġeventually": 3565,
      "Ġbehind": 3566,
      "ĠPresident": 3567,
      "Ġphysical": 3568,
      "Ġmaterials": 3569,
      "Ġachieve": 3570,
      "Ġsquare": 3571,
      "Ġfruit": 3572,
      "Ġbulle": 3573,
      "ĠMichael": 3574,
      "ĠJeff": 3575,
      "Ġterrit": 3576,
      "Ġnuclear": 3577,
      "Ġadvantage": 3578,
      "razil": 3579,
      "Is": 3580,
      "actions": 3581,
      "eks": 3582,
      "gree": 3583,
      "hib": 3584,
      "mon": 3585,
      "nit": 3586,
      "oice": 3587,
      "reet": 3588,
      "sts": 3589,
      "onic": 3590,
      "ert": 3591,
      "aries": 3592,
      "arian": 3593,
      "ani": 3594,
      "Ġcode": 3595,
      "atory": 3596,
      "eding": 3597,
      "asc": 3598,
      "Ġwild": 3599,
      "Ġmention": 3600,
      "uture": 3601,
      "ĠSouthern": 3602,
      "Ġexerc": 3603,
      "ĠTur": 3604,
      "adel": 3605,
      "Ġnames": 3606,
      "Ġreasons": 3607,
      "Ġstri": 3608,
      "ĠMer": 3609,
      "ocks": 3610,
      "oted": 3611,
      "ĠDr": 3612,
      "Ġacqu": 3613,
      "Ġchampionship": 3614,
      "soft": 3615,
      "Ġincome": 3616,
      "ĠItaly": 3617,
      "irect": 3618,
      "Ġclassi": 3619,
      "Ġweeks": 3620,
      "Ġ2015": 3621,
      "Ġbecoming": 3622,
      "Ġoutput": 3623,
      "Ġ187": 3624,
      "Ġneigh": 3625,
      "Ġoffice": 3626,
      "lected": 3627,
      "Ġcentral": 3628,
      "Ġpowerful": 3629,
      "Ġincreased": 3630,
      "hester": 3631,
      "Ġapproach": 3632,
      "Ġapproximately": 3633,
      "ĠClub": 3634,
      "ĠWestern": 3635,
      "Ġprivate": 3636,
      "Ġequipment": 3637,
      "Ġcampaign": 3638,
      "ĠCompany": 3639,
      "Ġsuggest": 3640,
      "Ġprotein": 3641,
      "Ġcomponents": 3642,
      "Ġquickly": 3643,
      "asketball": 3644,
      "FA": 3645,
      "Name": 3646,
      "ON": 3647,
      "rd": 3648,
      "rap": 3649,
      "rans": 3650,
      "sing": 3651,
      "Ġtrib": 3652,
      "Ġcred": 3653,
      "Ġfac": 3654,
      "Ġwrote": 3655,
      "Ġbond": 3656,
      "Ġbott": 3657,
      "iting": 3658,
      "esis": 3659,
      "ental": 3660,
      "right": 3661,
      "ĠSince": 3662,
      "Ġ25": 3663,
      "irgin": 3664,
      "ĠMed": 3665,
      "ĠMet": 3666,
      "ĠMicro": 3667,
      "Ġconstruct": 3668,
      "ĠNe": 3669,
      "orts": 3670,
      "Ġspe": 3671,
      "Ġcontent": 3672,
      "Ġcontext": 3673,
      "ĠSte": 3674,
      "cular": 3675,
      "Ġ2006": 3676,
      "Ġsimple": 3677,
      "Ġsomeone": 3678,
      "Ġprincip": 3679,
      "ternet": 3680,
      "Ġrelated": 3681,
      "Ġsubsequ": 3682,
      "enez": 3683,
      "Ġgetting": 3684,
      "aska": 3685,
      "Ġallowed": 3686,
      "ĠRobert": 3687,
      "Ġprevent": 3688,
      "Ġjoined": 3689,
      "ĠRussia": 3690,
      "stitute": 3691,
      "Ġmanufacture": 3692,
      "Ġraised": 3693,
      "Ġcontinued": 3694,
      "ĠItalian": 3695,
      "40": 3696,
      "Americ": 3697,
      "Ind": 3698,
      "Sh": 3699,
      "Some": 3700,
      "uit": 3701,
      "Ġice": 3702,
      "Ġtennis": 3703,
      "rest": 3704,
      "ongest": 3705,
      "ara": 3706,
      "Ġphen": 3707,
      "Ġsure": 3708,
      "Ġclear": 3709,
      "edy": 3710,
      "isation": 3711,
      "asy": 3712,
      "Ġfly": 3713,
      "Ġfast": 3714,
      "Ġwine": 3715,
      "Ġwatch": 3716,
      "Ġreti": 3717,
      "Ġreven": 3718,
      "Ġinte": 3719,
      "Ġdro": 3720,
      "Ġdate": 3721,
      "Ġdigital": 3722,
      "Ġextract": 3723,
      "Ġlength": 3724,
      "ĠCr": 3725,
      "Ġnorm": 3726,
      "Ġ27": 3727,
      "Ġstage": 3728,
      "ĠPart": 3729,
      "ĠPay": 3730,
      "ĠBel": 3731,
      "quart": 3732,
      "ĠGener": 3733,
      "Ġ31": 3734,
      "ĠDem": 3735,
      "arden": 3736,
      "ĠVer": 3737,
      "ĠStreet": 3738,
      "Ġworking": 3739,
      "Ġadj": 3740,
      "Ġdefined": 3741,
      "oston": 3742,
      "Ġoperating": 3743,
      "Ġintelligence": 3744,
      "Ġcenter": 3745,
      "Ġwinner": 3746,
      "Ġtransport": 3747,
      "Ġtransform": 3748,
      "Ġtransfer": 3749,
      "Ġsurv": 3750,
      "Ġmarketing": 3751,
      "ĠJohnson": 3752,
      "Ġwriting": 3753,
      "Ġfilms": 3754,
      "ĠIsland": 3755,
      "Ġsongs": 3756,
      "Ġcauses": 3757,
      "Ġhardware": 3758,
      "Ġrestaur": 3759,
      "Ġmovies": 3760,
      "Ġfriend": 3761,
      "Ġfrequ": 3762,
      "Ġdistribution": 3763,
      "Ġurban": 3764,
      "Ġtechniques": 3765,
      "Ġphilos": 3766,
      "Can": 3767,
      "fect": 3768,
      "ius": 3769,
      "oon": 3770,
      "Ġtur": 3771,
      "rel": 3772,
      "Ġslow": 3773,
      "Ġcand": 3774,
      "org": 3775,
      "Ġfant": 3776,
      "Ġfresh": 3777,
      "olk": 3778,
      "Ġden": 3779,
      "icks": 3780,
      "ĠAwards": 3781,
      "ĠTy": 3782,
      "ĠTexas": 3783,
      "irl": 3784,
      "ockey": 3785,
      "ĠHall": 3786,
      "Ġconv": 3787,
      "ĠWind": 3788,
      "Ġcomes": 3789,
      "igr": 3790,
      "ords": 3791,
      "Ġchart": 3792,
      "Ġchief": 3793,
      "Ġspread": 3794,
      "Ġshare": 3795,
      "acters": 3796,
      "Ġweap": 3797,
      "shot": 3798,
      "Ġoverall": 3799,
      "Ġago": 3800,
      "Ġindepend": 3801,
      "Ġflight": 3802,
      "Ġleader": 3803,
      "Ġsoccer": 3804,
      "umption": 3805,
      "ique": 3806,
      "Ġbatter": 3807,
      "Ġeasy": 3808,
      "Ġentire": 3809,
      "Ġpotential": 3810,
      "Ġawarded": 3811,
      "Ġdefeated": 3812,
      "ATO": 3813,
      "Ġanswer": 3814,
      "Ġdisease": 3815,
      "Ġinnov": 3816,
      "Based": 3817,
      "bu": 3818,
      "back": 3819,
      "list": 3820,
      "sen": 3821,
      "uk": 3822,
      "Ġtaking": 3823,
      "Ġson": 3824,
      "Ġcall": 3825,
      "Ġcases": 3826,
      "Ġmom": 3827,
      "Ġinsp": 3828,
      "Ġdry": 3829,
      "Ġdiver": 3830,
      "ĠAv": 3831,
      "Ġgave": 3832,
      "Ġhyd": 3833,
      "Ġanti": 3834,
      "ĠSto": 3835,
      "aped": 3836,
      "ĠCamp": 3837,
      "Ġtools": 3838,
      "adium": 3839,
      "urance": 3840,
      "idence": 3841,
      "ĠPaul": 3842,
      "ĠFer": 3843,
      "Ġalthough": 3844,
      "Ġ2000": 3845,
      "ĠDon": 3846,
      "ĠDep": 3847,
      "ĠEach": 3848,
      "ĠOl": 3849,
      "izes": 3850,
      "izza": 3851,
      "Ġtrack": 3852,
      "Ġcannot": 3853,
      "luding": 3854,
      "Ġwhose": 3855,
      "oyal": 3856,
      "Ġfinished": 3857,
      "Ġwins": 3858,
      "Ġattended": 3859,
      "Ġsubject": 3860,
      "ĠSpace": 3861,
      "ĠSpanish": 3862,
      "isms": 3863,
      "Ġsinger": 3864,
      "Ġbelong": 3865,
      "Ġ1960": 3866,
      "Ġsentiment": 3867,
      "Ġturned": 3868,
      "Ġexisting": 3869,
      "Ġchanges": 3870,
      "Ġhistorical": 3871,
      "ĠSeries": 3872,
      "Ġappointed": 3873,
      "Ġintegr": 3874,
      ");": 3875,
      "bl": 3876,
      "cast": 3877,
      "cient": 3878,
      "ding": 3879,
      "ham": 3880,
      "hood": 3881,
      "Ġtakes": 3882,
      "Ġsay": 3883,
      "Ġcris": 3884,
      "atter": 3885,
      "asion": 3886,
      "Ġfit": 3887,
      "Ġfavor": 3888,
      "Ġtoday": 3889,
      "Ġgun": 3890,
      "Ġhous": 3891,
      "Ġisland": 3892,
      "ili": 3893,
      "mentary": 3894,
      "Ġplanets": 3895,
      "Ġstar": 3896,
      "ĠMax": 3897,
      "Ġheat": 3898,
      "ĠHol": 3899,
      "aining": 3900,
      "ĠLos": 3901,
      "ĠDut": 3902,
      "Ġdest": 3903,
      "ĠStar": 3904,
      "aker": 3905,
      "Ġmathe": 3906,
      "Ġdecl": 3907,
      "Ġjournal": 3908,
      "ship": 3909,
      "Ġsimply": 3910,
      "197": 3911,
      "Ġnumerous": 3912,
      "Ġrelig": 3913,
      "Ġhighly": 3914,
      "Ġworked": 3915,
      "Ġcharacters": 3916,
      "Ġsurface": 3917,
      "ĠSwed": 3918,
      "Ġincreasing": 3919,
      "Ġbuildings": 3920,
      "Ġorganization": 3921,
      "Ġlevels": 3922,
      "Ġdemand": 3923,
      "Ġsteps": 3924,
      "Ġlaunched": 3925,
      "Ġrelationship": 3926,
      "Ġnecess": 3927,
      "ĠGenesis": 3928,
      "den": 3929,
      "fl": 3930,
      "ford": 3931,
      "house": 3932,
      "ij": 3933,
      "iant": 3934,
      "iences": 3935,
      "rol": 3936,
      "tial": 3937,
      "Ġpath": 3938,
      "Ġcore": 3939,
      "Ġcitiz": 3940,
      "Ġfight": 3941,
      "Ġface": 3942,
      "Ġfoot": 3943,
      "Ġrepe": 3944,
      "Ġbicy": 3945,
      "stein": 3946,
      "Ġeat": 3947,
      "ĠAut": 3948,
      "Ġgold": 3949,
      "Ġhappen": 3950,
      "ĠSat": 3951,
      "ĠSau": 3952,
      "ĠTes": 3953,
      "Ġlooking": 3954,
      "Ġlittle": 3955,
      "Ġproblems": 3956,
      "unt": 3957,
      "Ġonline": 3958,
      "Ġ24": 3959,
      "Ġstorage": 3960,
      "ota": 3961,
      "ĠGl": 3962,
      "ĠWal": 3963,
      "Ġalive": 3964,
      "Ġalmost": 3965,
      "Ġ2002": 3966,
      "Ġrap": 3967,
      "Ġrules": 3968,
      "ĠNATO": 3969,
      "istics": 3970,
      "ĠJust": 3971,
      "ĠVenez": 3972,
      "cally": 3973,
      "Ġexpensive": 3974,
      "Ġoptions": 3975,
      "Ġadop": 3976,
      "Ġoffer": 3977,
      "Ġcoast": 3978,
      "Ġadded": 3979,
      "enced": 3980,
      "Ġseasons": 3981,
      "ĠUSA": 3982,
      "Ġcontract": 3983,
      "Ġdrive": 3984,
      "Ġdriver": 3985,
      "Ġactually": 3986,
      "Ġpositive": 3987,
      "ĠOrgan": 3988,
      "Ġtrees": 3989,
      "ĠCentral": 3990,
      "lorida": 3991,
      "Ġstreng": 3992,
      "aught": 3993,
      "ĠGolden": 3994,
      "Ġregarded": 3995,
      "Ġquarter": 3996,
      "ĠDistrict": 3997,
      "ĠPotter": 3998,
      "etherlands": 3999,
      "ĠLatin": 4000,
      ".[": 4001,
      "07": 4002,
      "27": 4003,
      "LA": 4004,
      "bon": 4005,
      "cur": 4006,
      "tuning": 4007,
      "war": 4008,
      "year": 4009,
      "hel": 4010,
      "Ġsleep": 4011,
      "ali": 4012,
      "Ġcam": 4013,
      "atre": 4014,
      "lette": 4015,
      "artin": 4016,
      "ising": 4017,
      "Ġful": 4018,
      "olar": 4019,
      "Ġbridge": 4020,
      "Ġdomestic": 4021,
      "rogen": 4022,
      "sig": 4023,
      "ami": 4024,
      "ĠTim": 4025,
      "Ġlongest": 4026,
      "Ġprem": 4027,
      "Ġprefer": 4028,
      "Ġnorthern": 4029,
      "ĠMad": 4030,
      "ĠMac": 4031,
      "ĠMiss": 4032,
      "ĠFI": 4033,
      "ĠBol": 4034,
      "umn": 4035,
      "odes": 4036,
      "ĠHy": 4037,
      "Ġrati": 4038,
      "ĠNav": 4039,
      "ĠNetherlands": 4040,
      "ucks": 4041,
      "ĠUnder": 4042,
      "ĠVirgin": 4043,
      "Ġrecip": 4044,
      "Ġspent": 4045,
      "berl": 4046,
      "Ġking": 4047,
      "itionally": 4048,
      "ogle": 4049,
      "Ġshape": 4050,
      "ĠInter": 4051,
      "Ġunique": 4052,
      "Ġmostly": 4053,
      "Ġended": 4054,
      "Ġsection": 4055,
      "Ġstructures": 4056,
      "phia": 4057,
      "Ġnumbers": 4058,
      "Ġinstit": 4059,
      "Ġsigned": 4060,
      "Ġlocation": 4061,
      "Ġaccording": 4062,
      "Ġschools": 4063,
      "Ġopened": 4064,
      "Ġdirectly": 4065,
      "Ġpolitic": 4066,
      "ready": 4067,
      "ĠJapanese": 4068,
      "ĠOnce": 4069,
      "ĠRussian": 4070,
      "ĠPrize": 4071,
      "Ġqualifying": 4072,
      "Ġprompting": 4073,
      "Ġseparated": 4074,
      "ĠMusic": 4075,
      "Ġwestern": 4076,
      "Ġcontribut": 4077,
      "Ġapplications": 4078,
      "Ġeggs": 4079,
      "Ġbehavior": 4080,
      "nitude": 4081,
      "For": 4082,
      "hu": 4083,
      "known": 4084,
      "met": 4085,
      "ror": 4086,
      "Ġparent": 4087,
      "Ġcross": 4088,
      "edom": 4089,
      "Ġfuture": 4090,
      "Ġwick": 4091,
      "Ġmind": 4092,
      "Ġmother": 4093,
      "Ġtow": 4094,
      "Ġtowards": 4095,
      "omic": 4096,
      "ica": 4097,
      "enth": 4098,
      "use": 4099,
      "uted": 4100,
      "ĠSim": 4101,
      "apes": 4102,
      "ĠTime": 4103,
      "Ġlack": 4104,
      "Ġlake": 4105,
      "ĠCoun": 4106,
      "Ġ29": 4107,
      "ĠIm": 4108,
      "ĠBoston": 4109,
      "geles": 4110,
      "ĠRev": 4111,
      "Ġalready": 4112,
      "Ġord": 4113,
      "ĠLaw": 4114,
      "Ġmoving": 4115,
      "osis": 4116,
      "berg": 4117,
      "Ġexpand": 4118,
      "amples": 4119,
      "Ġabs": 4120,
      "Ġmeet": 4121,
      "Ġclos": 4122,
      "ĠParis": 4123,
      "Ġwealth": 4124,
      "Ġ2023": 4125,
      "ĠThom": 4126,
      "Ġcomma": 4127,
      "Ġcommit": 4128,
      "anchester": 4129,
      "Ġintended": 4130,
      "ĠArmy": 4131,
      "Ġuseful": 4132,
      "ĠAngeles": 4133,
      "Ġmuseum": 4134,
      "Ġdistrict": 4135,
      "Ġpolicy": 4136,
      "Ġowner": 4137,
      "Ġmajority": 4138,
      "Ġcheese": 4139,
      "Ġelected": 4140,
      "Ġextinct": 4141,
      "ĠBlack": 4142,
      "ĠBlue": 4143,
      "tivity": 4144,
      "Ġalbums": 4145,
      "Ġknowledge": 4146,
      "Ġcollege": 4147,
      "Ġoccurred": 4148,
      "Ġbeginning": 4149,
      "Ġimmedi": 4150,
      "Ġbasic": 4151,
      "grees": 4152,
      "wiki": 4153,
      "wikipedia": 4154,
      "Ġranked": 4155,
      "Ġsandw": 4156,
      "Ġtemperature": 4157,
      "Ġensure": 4158,
      "ĠJefferson": 4159,
      "adelphia": 4160,
      "ĠMicrosoft": 4161,
      "99": 4162,
      "Sp": 4163,
      "night": 4164,
      "ox": 4165,
      "po": 4166,
      "where": 4167,
      "Ġ.": 4168,
      "Ġtaken": 4169,
      "regon": 4170,
      "stant": 4171,
      "stone": 4172,
      "ona": 4173,
      "imin": 4174,
      "oug": 4175,
      "oul": 4176,
      "Ġcup": 4177,
      "lec": 4178,
      "level": 4179,
      "Ġfif": 4180,
      "ollette": 4181,
      "ulated": 4182,
      "Ġdraw": 4183,
      "amic": 4184,
      "ching": 4185,
      "ĠTro": 4186,
      "ĠTem": 4187,
      "Ġforward": 4188,
      "Ġforces": 4189,
      "unic": 4190,
      "ressive": 4191,
      "ident": 4192,
      "ĠBet": 4193,
      "cement": 4194,
      "ume": 4195,
      "see": 4196,
      "ĠHem": 4197,
      "ĠHaw": 4198,
      "otor": 4199,
      "ulture": 4200,
      "Ġconstruction": 4201,
      "Ġattention": 4202,
      "Ġdegrees": 4203,
      "abad": 4204,
      "abilities": 4205,
      "aging": 4206,
      "âĢĬ": 4207,
      "Ġtrade": 4208,
      "acket": 4209,
      "ervised": 4210,
      "Ġuniversity": 4211,
      "Ġ2005": 4212,
      "Ġjud": 4213,
      "Ġpron": 4214,
      "Ġlisted": 4215,
      "ĠArm": 4216,
      "Ġriver": 4217,
      "Ġ1991": 4218,
      "Ġminim": 4219,
      "Ġsingles": 4220,
      "Ġfourth": 4221,
      "including": 4222,
      "Ġcomplete": 4223,
      "Ġcompleted": 4224,
      "Ġpurpose": 4225,
      "Ġtrill": 4226,
      "Ġcounter": 4227,
      "Ġcorre": 4228,
      "Ġpercent": 4229,
      "Ġideas": 4230,
      "Ġpractic": 4231,
      "Ġmeasure": 4232,
      "uela": 4233,
      "Ġcells": 4234,
      "Ġcritic": 4235,
      "Ġletter": 4236,
      "Ġepis": 4237,
      "ĠOlympics": 4238,
      "Ġvictory": 4239,
      "sych": 4240,
      "Ġapplied": 4241,
      "ĠDemoc": 4242,
      "ĠTesla": 4243,
      "24": 4244,
      "34": 4245,
      "II": 4246,
      "List": 4247,
      "NA": 4248,
      "bol": 4249,
      "ging": 4250,
      "gers": 4251,
      "lines": 4252,
      "lier": 4253,
      "ÃŃ": 4254,
      "Ġ:": 4255,
      "Ġtaste": 4256,
      "Ġpaper": 4257,
      "Ġpizza": 4258,
      "Ġsil": 4259,
      "Ġsalt": 4260,
      "Ġsouthern": 4261,
      "Ġwife": 4262,
      "ĠAlex": 4263,
      "ĠAccording": 4264,
      "Ġhapp": 4265,
      "ĠSl": 4266,
      "ilies": 4267,
      "Ġnut": 4268,
      "unity": 4269,
      "ider": 4270,
      "Ġviol": 4271,
      "ĠBrazil": 4272,
      "Ġ(/": 4273,
      "ĠRich": 4274,
      "ecting": 4275,
      "Ġdegree": 4276,
      "iger": 4277,
      "ĠOut": 4278,
      "ĠOcean": 4279,
      "ĠOregon": 4280,
      "Ġcompared": 4281,
      "Ġopport": 4282,
      "Ġscreen": 4283,
      "ummer": 4284,
      "ĠInc": 4285,
      "ĠChurch": 4286,
      "Ġunl": 4287,
      "Ġunit": 4288,
      "Ġadult": 4289,
      "Ġ2003": 4290,
      "Ġwhole": 4291,
      "Ġpeak": 4292,
      "Ġquanti": 4293,
      "Ġneg": 4294,
      "Ġresponsible": 4295,
      "Ġphone": 4296,
      "ĠAlthough": 4297,
      "Ġblock": 4298,
      "cohol": 4299,
      "Ġprocesses": 4300,
      "Ġsurround": 4301,
      "ĠWhite": 4302,
      "Ġoriginally": 4303,
      "Ġfranch": 4304,
      "Ġrequired": 4305,
      "Ġbike": 4306,
      "Ġelection": 4307,
      "ĠAtlan": 4308,
      "Ġexplo": 4309,
      "Ġinvestors": 4310,
      "Ġlegal": 4311,
      "Ġfallacy": 4312,
      "Ġnearly": 4313,
      "ĠAmazon": 4314,
      "Ġconflic": 4315,
      "Ġcourt": 4316,
      "ĠPrix": 4317,
      "ĠGoogle": 4318,
      "what": 4319,
      "Ġholds": 4320,
      "ĠPhiladelphia": 4321,
      "Ġcrypto": 4322,
      "Ġpolitician": 4323,
      "'m": 4324,
      "'ve": 4325,
      "At": 4326,
      "DA": 4327,
      "cher": 4328,
      "set": 4329,
      "Â°": 4330,
      "reme": 4331,
      "erve": 4332,
      "Ġsev": 4333,
      "Ġfem": 4334,
      "Ġbag": 4335,
      "Ġbaby": 4336,
      "itzer": 4337,
      "ula": 4338,
      "Ġder": 4339,
      "uss": 4340,
      "ĠSand": 4341,
      "mentation": 4342,
      "eth": 4343,
      "ĠTer": 4344,
      "Ġthing": 4345,
      "Ġones": 4346,
      "ĠIll": 4347,
      "Ġsty": 4348,
      "urs": 4349,
      "iring": 4350,
      "ĠMag": 4351,
      "ĠMah": 4352,
      "ĠManchester": 4353,
      "Ġbeans": 4354,
      "Ġvirt": 4355,
      "ĠFA": 4356,
      "ĠFlorida": 4357,
      "ĠBC": 4358,
      "ĠBrit": 4359,
      "ĠHot": 4360,
      "ĠGand": 4361,
      "ĠGames": 4362,
      "Ġdead": 4363,
      "Ġlett": 4364,
      "Ġchampionships": 4365,
      "Ġarri": 4366,
      "Ġtrue": 4367,
      "ests": 4368,
      "Ġliqu": 4369,
      "lectric": 4370,
      "ĠArch": 4371,
      "Ġ1999": 4372,
      "Ġheadquart": 4373,
      "Ġblind": 4374,
      "Ġrefers": 4375,
      "ĠGroup": 4376,
      "Ġbring": 4377,
      "Ġ1970": 4378,
      "Ġpopulous": 4379,
      "Ġwriter": 4380,
      "ĠZeal": 4381,
      "ĠIslands": 4382,
      "Ġdepends": 4383,
      "Ġdepending": 4384,
      "Ġoldest": 4385,
      "Ġjoin": 4386,
      "Ġinfluential": 4387,
      "Ġcombination": 4388,
      "Ġweights": 4389,
      "ĠCorpor": 4390,
      "Ġcontrib": 4391,
      "Ġmountain": 4392,
      "ĠSecond": 4393,
      "Ġpurchase": 4394,
      "ĠAcadem": 4395,
      "Ġobjects": 4396,
      "ĠBecause": 4397,
      "Ã¶rans": 4398,
      "Ġbulleted": 4399,
      "Ġbottom": 4400,
      "American": 4401,
      "ĠParty": 4402,
      "ĠGeneral": 4403,
      "Ġbicycle": 4404,
      "berlake": 4405,
      "ĠZealand": 4406,
      "Ã¶ransson": 4407,
      "BC": 4408,
      "VI": 4409,
      "craft": 4410,
      "ees": 4411,
      "gi": 4412,
      "oft": 4413,
      "ped": 4414,
      "pass": 4415,
      "rain": 4416,
      "ued": 4417,
      "Ġult": 4418,
      "Ġath": 4419,
      "stream": 4420,
      "arge": 4421,
      "tit": 4422,
      "aled": 4423,
      "alled": 4424,
      "Ġcou": 4425,
      "orgh": 4426,
      "Ġwrite": 4427,
      "Ġbad": 4428,
      "Ġbud": 4429,
      "ites": 4430,
      "ria": 4431,
      "ĠCE": 4432,
      "Ġ28": 4433,
      "ĠInt": 4434,
      "Ġstated": 4435,
      "ĠPGA": 4436,
      "ĠData": 4437,
      "ĠNight": 4438,
      "ourt": 4439,
      "ivision": 4440,
      "izabet": 4441,
      "oss": 4442,
      "Ġspeed": 4443,
      "Ġability": 4444,
      "Ġuniverse": 4445,
      "Ġwebs": 4446,
      "undred": 4447,
      "Ġ80": 4448,
      "Ġupd": 4449,
      "Ġemo": 4450,
      "Ġ500": 4451,
      "Ġgrew": 4452,
      "graph": 4453,
      "Ġcenturies": 4454,
      "Ġ1997": 4455,
      "ĠAlaska": 4456,
      "oved": 4457,
      "overed": 4458,
      "Ġimple": 4459,
      "Ġbreath": 4460,
      "Ġstudents": 4461,
      "Ġstudio": 4462,
      "Ġoriginated": 4463,
      "Ġinterv": 4464,
      "ĠSeattle": 4465,
      "Ġvisual": 4466,
      "Ġreduce": 4467,
      "ĠForce": 4468,
      "Ġhimself": 4469,
      "Ġdrink": 4470,
      "Ġavoid": 4471,
      "Ġinstruments": 4472,
      "Ġgrowing": 4473,
      "Ġhelped": 4474,
      "ĠConference": 4475,
      "Ġinvolves": 4476,
      "ĠCarol": 4477,
      "Ġdescribe": 4478,
      "ropol": 4479,
      "Ġclassical": 4480,
      "stitution": 4481,
      "Ġseparate": 4482,
      "Ġreported": 4483,
      "Ġloss": 4484,
      "ĠPeople": 4485,
      "Ġcritical": 4486,
      "Ġpressure": 4487,
      "Ġcommunication": 4488,
      "ĠRecords": 4489,
      "Ġadminist": 4490,
      "ĠChristian": 4491,
      "Ġearthqu": 4492,
      "Ġparents": 4493,
      "ĠCorporation": 4494,
      "orghini": 4495,
      "500": 4496,
      "Jo": 4497,
      "aks": 4498,
      "bur": 4499,
      "cil": 4500,
      "door": 4501,
      "gely": 4502,
      "hold": 4503,
      "ilan": 4504,
      "iers": 4505,
      "itive": 4506,
      "load": 4507,
      "mical": 4508,
      "ruct": 4509,
      "Ã³": 4510,
      "inter": 4511,
      "inot": 4512,
      "head": 4513,
      "arant": 4514,
      "Ġpan": 4515,
      "Ġsite": 4516,
      "alking": 4517,
      "enry": 4518,
      "ouis": 4519,
      "Ġcle": 4520,
      "Ġcold": 4521,
      "Ġcorn": 4522,
      "Ġfest": 4523,
      "Ġfail": 4524,
      "Ġwear": 4525,
      "Ġwalk": 4526,
      "Ġinput": 4527,
      "Ġdraft": 4528,
      "Ġdyn": 4529,
      "Ġdouble": 4530,
      "ĠAsian": 4531,
      "Ġgrown": 4532,
      "Ġislands": 4533,
      "ĠSoc": 4534,
      "ĠSong": 4535,
      "ĠSociety": 4536,
      "Ġexten": 4537,
      "Ġpropos": 4538,
      "ĠTo": 4539,
      "Ġlives": 4540,
      "adian": 4541,
      "Ġnav": 4542,
      "Ġstore": 4543,
      "ĠMartin": 4544,
      "Ġvocal": 4545,
      "ĠFire": 4546,
      "Ġconsec": 4547,
      "ĠGreek": 4548,
      "ĠEc": 4549,
      "ĠNot": 4550,
      "ĠNob": 4551,
      "Ġacadem": 4552,
      "ĠJose": 4553,
      "Ġchance": 4554,
      "Ġrecently": 4555,
      "Ġspring": 4556,
      "ightly": 4557,
      "Ġdatas": 4558,
      "ratic": 4559,
      "Ġdefinition": 4560,
      "Ġdecided": 4561,
      "Ġprint": 4562,
      "oys": 4563,
      "Ġdishes": 4564,
      "Ġoffers": 4565,
      "Ġcover": 4566,
      "Ġ1995": 4567,
      "Ġproviding": 4568,
      "Ġearlier": 4569,
      "derabad": 4570,
      "Ġwarm": 4571,
      "Ġbrought": 4572,
      "Ġremains": 4573,
      "rison": 4574,
      "Ġdirection": 4575,
      "Ġaccur": 4576,
      "Ġfoods": 4577,
      "Ġopening": 4578,
      "Ġcontinue": 4579,
      "Ġconsumption": 4580,
      "Ġcultural": 4581,
      "Ġartificial": 4582,
      "Ġmiddle": 4583,
      "Ġera": 4584,
      "Ġlimited": 4585,
      "Ġscientific": 4586,
      "ĠWoods": 4587,
      "Ġchalleng": 4588,
      "Ġprepared": 4589,
      "Ġdeclared": 4590,
      "ĠAcademy": 4591,
      "Ġconsecutive": 4592,
      "65": 4593,
      "89": 4594,
      "cont": 4595,
      "equ": 4596,
      "fort": 4597,
      "pre": 4598,
      "util": 4599,
      "ya": 4600,
      "Ġ,": 4601,
      "Ġsen": 4602,
      "atures": 4603,
      "ola": 4604,
      "Ġbri": 4605,
      "Ġbull": 4606,
      "ita": 4607,
      "Ġinh": 4608,
      "Ġdates": 4609,
      "rian": 4610,
      "illed": 4611,
      "Ġexce": 4612,
      "change": 4613,
      "ĠTor": 4614,
      "Ġlog": 4615,
      "Ġthus": 4616,
      "ady": 4617,
      "Ġstock": 4618,
      "ĠMy": 4619,
      "ĠMont": 4620,
      "ĠPal": 4621,
      "Ġbeach": 4622,
      "Ġvary": 4623,
      "ĠBen": 4624,
      "ĠBowl": 4625,
      "ĠTheir": 4626,
      "ĠGolf": 4627,
      "ĠWater": 4628,
      "ĠDirect": 4629,
      "ĠDivision": 4630,
      "igration": 4631,
      "Ġ1964": 4632,
      "Ġmob": 4633,
      "ione": 4634,
      "ĠOver": 4635,
      "Ġarm": 4636,
      "Ġspir": 4637,
      "Ġtran": 4638,
      "Ġcancer": 4639,
      "Ġkids": 4640,
      "ĠKenn": 4641,
      "pped": 4642,
      "Ġgrand": 4643,
      "Ġgrav": 4644,
      "Ġtwice": 4645,
      "Ġlargely": 4646,
      "Ġrespective": 4647,
      "Ġproduce": 4648,
      "aily": 4649,
      "Ġcoach": 4650,
      "Ġboard": 4651,
      "Ġfinish": 4652,
      "ification": 4653,
      "Ġwinter": 4654,
      "Ġflat": 4655,
      "Ġblood": 4656,
      "Ġbreed": 4657,
      "ressed": 4658,
      "Ġskills": 4659,
      "Ġowned": 4660,
      "Ġrequires": 4661,
      "Ġinflation": 4662,
      "Ġreceive": 4663,
      "Ġnearby": 4664,
      "borne": 4665,
      "Ġquestions": 4666,
      "Ġmethods": 4667,
      "ophy": 4668,
      "Ġparticularly": 4669,
      "Ġeastern": 4670,
      "Ġkilled": 4671,
      "Ġranking": 4672,
      "Ġrotation": 4673,
      "Ġharness": 4674,
      "Ġpieces": 4675,
      "Ġconstructed": 4676,
      "Ġfavorite": 4677,
      "Ġnecessary": 4678,
      "ĠVenezuela": 4679,
      "Ġratio": 4680,
      ",\"": 4681,
      "35": 4682,
      "39": 4683,
      "55": 4684,
      "After": 4685,
      "CC": 4686,
      "ST": 4687,
      "bow": 4688,
      "band": 4689,
      "chen": 4690,
      "flow": 4691,
      "gor": 4692,
      "hand": 4693,
      "ients": 4694,
      "mond": 4695,
      "rad": 4696,
      "Ġzer": 4697,
      "Ġutil": 4698,
      "Ġtuning": 4699,
      "arks": 4700,
      "Ġpsych": 4701,
      "Ġsociety": 4702,
      "ena": 4703,
      "Ġcook": 4704,
      "orpor": 4705,
      "Ġfarm": 4706,
      "oln": 4707,
      "oler": 4708,
      "olid": 4709,
      "Ġmac": 4710,
      "Ġmax": 4711,
      "used": 4712,
      "ĠAD": 4713,
      "Ġharm": 4714,
      "ously": 4715,
      "ĠCivil": 4716,
      "Ġnar": 4717,
      "acher": 4718,
      "Ġsolid": 4719,
      "ategy": 4720,
      "ĠBu": 4721,
      "ĠBest": 4722,
      "ĠBook": 4723,
      "Ġheart": 4724,
      "ĠHind": 4725,
      "ĠRet": 4726,
      "ĠGod": 4727,
      "Ġrise": 4728,
      "Ġdeal": 4729,
      "ĠNap": 4730,
      "abit": 4731,
      "ĠJack": 4732,
      "ĠJava": 4733,
      "Ġchoose": 4734,
      "ĠUt": 4735,
      "ĠVe": 4736,
      "Ġexpected": 4737,
      "Ġcomposed": 4738,
      "Ġoppon": 4739,
      "Ġweb": 4740,
      "Ġdecades": 4741,
      "ferences": 4742,
      "Ġappe": 4743,
      "Ġfollows": 4744,
      "Ġlisten": 4745,
      "Ġstudied": 4746,
      "tainment": 4747,
      "ĠFrank": 4748,
      "Ġcharge": 4749,
      "Ġsky": 4750,
      "Ġhelps": 4751,
      "Ġbrand": 4752,
      "ĠSea": 4753,
      "Ġincreases": 4754,
      "Ġadvanced": 4755,
      "187": 4756,
      "Ġpurs": 4757,
      "Ġorganizations": 4758,
      "Ġallowing": 4759,
      "andsc": 4760,
      "ĠGreen": 4761,
      "Ġdiscovered": 4762,
      "ĠPrince": 4763,
      "Ġofficially": 4764,
      "Ġtreat": 4765,
      "Ġcircle": 4766,
      "ĠEastern": 4767,
      "Ġfeatured": 4768,
      "Ġachieved": 4769,
      "Ġweekend": 4770,
      "Ġpredic": 4771,
      "Ġobserved": 4772,
      "Ġargument": 4773,
      "Ġbiggest": 4774,
      "Ġreview": 4775,
      "Ġswimming": 4776,
      "Ġcompete": 4777,
      "Ġpattern": 4778,
      "Ġidentified": 4779,
      "Ġsemi": 4780,
      "ĠSenate": 4781,
      "Ġusers": 4782,
      "Ġfixed": 4783,
      "Ġgradu": 4784,
      "Ġrowing": 4785,
      "Ġborder": 4786,
      "Ġstatistical": 4787,
      "Ġbenefits": 4788,
      "Ġconducted": 4789,
      "Ġprogramming": 4790,
      "Ġexercise": 4791,
      "Ġcrisis": 4792,
      "Ġstrength": 4793,
      "Ġliquid": 4794,
      "izabeth": 4795,
      "Ġzero": 4796,
      "'re": 4797,
      "31": 4798,
      "68": 4799,
      "AI": 4800,
      "Day": 4801,
      "GÃ¶ransson": 4802,
      "Main": 4803,
      "NES": 4804,
      "bing": 4805,
      "book": 4806,
      "ha": 4807,
      "har": 4808,
      "oth": 4809,
      "ray": 4810,
      "ville": 4811,
      "yer": 4812,
      "zen": 4813,
      "Ġing": 4814,
      "Ġaim": 4815,
      "inner": 4816,
      "reland": 4817,
      "Ġpor": 4818,
      "Ġsau": 4819,
      "anut": 4820,
      "isp": 4821,
      "Ġren": 4822,
      "ulation": 4823,
      "Ġdish": 4824,
      "aming": 4825,
      "Ġsolar": 4826,
      "Ġsolve": 4827,
      "ĠIr": 4828,
      "irth": 4829,
      "erse": 4830,
      "ĠPat": 4831,
      "Ġbeat": 4832,
      "ĠBeng": 4833,
      "Ġhere": 4834,
      "otes": 4835,
      "ĠRail": 4836,
      "lying": 4837,
      "ĠWil": 4838,
      "ĠWolf": 4839,
      "ĠLinc": 4840,
      "ĠLouis": 4841,
      "ĠDie": 4842,
      "ĠNor": 4843,
      "ĠNorthern": 4844,
      "istor": 4845,
      "ĠOs": 4846,
      "Ġchurch": 4847,
      "While": 4848,
      "Ġcontro": 4849,
      "Ġrecording": 4850,
      "Ġshows": 4851,
      "ĠKo": 4852,
      "ĠInstitute": 4853,
      "Ġadap": 4854,
      "Ġclosed": 4855,
      "raction": 4856,
      "athlon": 4857,
      "Ġgraph": 4858,
      "Ġneural": 4859,
      "Ġdism": 4860,
      "ologies": 4861,
      "Ġ40": 4862,
      "ĠArts": 4863,
      "Ġ1994": 4864,
      "Ġdistinct": 4865,
      "Ġserving": 4866,
      "ĠWars": 4867,
      "ibility": 4868,
      "Ġcreation": 4869,
      "ĠWhat": 4870,
      "Ġminor": 4871,
      "Ġelectronic": 4872,
      "Ġcompletion": 4873,
      "Ġlaws": 4874,
      "ĠIndiana": 4875,
      "ĠScience": 4876,
      "Ġextrem": 4877,
      "Ġappropri": 4878,
      "Ġbias": 4879,
      "Ġinstructions": 4880,
      "Ġconnected": 4881,
      "ĠCenter": 4882,
      "Ġconsisting": 4883,
      "Ġmanufacturing": 4884,
      "Ġentity": 4885,
      "Ġlosing": 4886,
      "aughter": 4887,
      "Ġfruits": 4888,
      "inois": 4889,
      "ĠTwo": 4890,
      "ĠButler": 4891,
      "Ġreturned": 4892,
      "Ġapplication": 4893,
      "ĠBillboard": 4894,
      "Ġstreaming": 4895,
      "Ġbalance": 4896,
      "Ġmorning": 4897,
      "Ġmentioned": 4898,
      "Ġrevenue": 4899,
      "ĠWindows": 4900,
      "Ġcitizens": 4901,
      "Ġrapid": 4902,
      "ĠHyderabad": 4903,
      "Ġfranchise": 4904,
      "ropolitan": 4905,
      "100": 4906,
      "21": 4907,
      "Be": 4908,
      "LP": 4909,
      "OC": 4910,
      "OU": 4911,
      "dd": 4912,
      "don": 4913,
      "found": 4914,
      "gar": 4915,
      "iber": 4916,
      "jective": 4917,
      "las": 4918,
      "mier": 4919,
      "pus": 4920,
      "rated": 4921,
      "spe": 4922,
      "uan": 4923,
      "yth": 4924,
      "Ġawards": 4925,
      "era": 4926,
      "arl": 4927,
      "Ġpric": 4928,
      "Ġtheore": 4929,
      "Ġovers": 4930,
      "Ġcast": 4931,
      "Ġfro": 4932,
      "Ġfuel": 4933,
      "Ġwave": 4934,
      "Ġrent": 4935,
      "Ġbasketball": 4936,
      "stered": 4937,
      "Ġinside": 4938,
      "ĠAtt": 4939,
      "Ġgiving": 4940,
      "Ġang": 4941,
      "lanc": 4942,
      "ĠSpe": 4943,
      "apore": 4944,
      "Ġlap": 4945,
      "Ġlived": 4946,
      "ĠCont": 4947,
      "Ġnine": 4948,
      "Ġcapabilities": 4949,
      "Ġ26": 4950,
      "ĠIreland": 4951,
      "ĠPur": 4952,
      "Ġbeer": 4953,
      "aint": 4954,
      "ĠRay": 4955,
      "ĠRoad": 4956,
      "Ġrang": 4957,
      "ĠEv": 4958,
      "Ġdeploy": 4959,
      "Ġmoon": 4960,
      "Ġacting": 4961,
      "Ġleave": 4962,
      "Ġleaving": 4963,
      "upiter": 4964,
      "ĠJud": 4965,
      "sions": 4966,
      "akers": 4967,
      "Ġparam": 4968,
      "Ġstrategy": 4969,
      "Ġwhereas": 4970,
      "track": 4971,
      "Ġdisco": 4972,
      "peror": 4973,
      "Ġ1992": 4974,
      "ĠAlso": 4975,
      "atives": 4976,
      "Ġattend": 4977,
      "Ġfounder": 4978,
      "echnology": 4979,
      "Ġ1988": 4980,
      "Ġ1989": 4981,
      "Ġcreating": 4982,
      "Ġbelieved": 4983,
      "ĠProv": 4984,
      "ĠProject": 4985,
      "Ġdriving": 4986,
      "Ġdoesn": 4987,
      "Ġeveryone": 4988,
      "Ġglass": 4989,
      "Ġannual": 4990,
      "Ġentered": 4991,
      "Ġdirector": 4992,
      "Ġexplore": 4993,
      "Ġolder": 4994,
      "Ġpossib": 4995,
      "Ġcharacteristics": 4996,
      "ĠFinland": 4997,
      "Ġcosts": 4998,
      "Ġconsists": 4999,
      "which": 5000,
      "Ġfishing": 5001,
      "Ġreports": 5002,
      "Ġchanged": 5003,
      "Ġsugar": 5004,
      "ĠMoon": 5005,
      "Ġissues": 5006,
      "Ġheavily": 5007,
      "Ġmanager": 5008,
      "liest": 5009,
      "Ġeyes": 5010,
      "ĠNFL": 5011,
      "ĠLamborghini": 5012,
      "Ġfailed": 5013,
      "Ġdamage": 5014,
      "allest": 5015,
      "Ġsweet": 5016,
      "Ġmoment": 5017,
      "ĠDutch": 5018,
      "Ġsandwich": 5019,
      "Ġcorrect": 5020,
      "ĠIllinois": 5021,
      "Ġstyles": 5022,
      "ĠGandhi": 5023,
      "25": 5024,
      "28": 5025,
      "Le": 5026,
      "MS": 5027,
      "Pal": 5028,
      "Tube": 5029,
      "cent": 5030,
      "comp": 5031,
      "lom": 5032,
      "net": 5033,
      "uri": 5034,
      "vation": 5035,
      "ĠÃ": 5036,
      "Ġou": 5037,
      "Ġastr": 5038,
      "onstr": 5039,
      "Ġpun": 5040,
      "Ġpers": 5041,
      "Ġsust": 5042,
      "lection": 5043,
      "assive": 5044,
      "Ġwoman": 5045,
      "Ġmamm": 5046,
      "Ġrese": 5047,
      "Ġdark": 5048,
      "icated": 5049,
      "enty": 5050,
      "rot": 5051,
      "ĠAg": 5052,
      "Ġgarden": 5053,
      "ript": 5054,
      "Ġhands": 5055,
      "Ġancient": 5056,
      "ĠService": 5057,
      "ĠSony": 5058,
      "appy": 5059,
      "mental": 5060,
      "ĠTaylor": 5061,
      "Ġly": 5062,
      "Ġlic": 5063,
      "ĠCre": 5064,
      "ĠCourt": 5065,
      "aud": 5066,
      "elled": 5067,
      "Ġcapac": 5068,
      "ĠIce": 5069,
      "ĠMu": 5070,
      "Ġasp": 5071,
      "ĠFord": 5072,
      "oty": 5073,
      "Ġconver": 5074,
      "iff": 5075,
      "ĠRow": 5076,
      "ĠGPT": 5077,
      "Ġ36": 5078,
      "ĠDi": 5079,
      "igan": 5080,
      "ĠJun": 5081,
      "Ġchain": 5082,
      "ĠVis": 5083,
      "Ġship": 5084,
      "Ġincorpor": 5085,
      "ĠChampionships": 5086,
      "avour": 5087,
      "ppi": 5088,
      "Ġseeds": 5089,
      "Ġdecre": 5090,
      "ensus": 5091,
      "Ġteach": 5092,
      "erman": 5093,
      "Ġ180": 5094,
      "Ġempire": 5095,
      "Ġdesp": 5096,
      "Ġboat": 5097,
      "largest": 5098,
      "Ġserve": 5099,
      "ĠJoe": 5100,
      "Ġsett": 5101,
      "Ġ90": 5102,
      "box": 5103,
      "Ġsignal": 5104,
      "Ġbrown": 5105,
      "Ġremained": 5106,
      "Ġ1965": 5107,
      "ĠBeach": 5108,
      "Ġ1957": 5109,
      "Ġedition": 5110,
      "ĠCanadian": 5111,
      "espite": 5112,
      "olls": 5113,
      "Ġsupported": 5114,
      "ĠPremier": 5115,
      "Ġcollection": 5116,
      "Ġcharacterized": 5117,
      "atics": 5118,
      "Ġdivided": 5119,
      "Ġmagnitude": 5120,
      "Ġeasily": 5121,
      "Ġviews": 5122,
      "Ġfreedom": 5123,
      "Ġmeasured": 5124,
      "ographic": 5125,
      "Ġflowers": 5126,
      "Ġmechanisms": 5127,
      "Ġpreviously": 5128,
      "Ġmountains": 5129,
      "Ġbanks": 5130,
      "Ġcollabor": 5131,
      "Ġcustomer": 5132,
      "ĠApplegate": 5133,
      "Ġprobably": 5134,
      "issippi": 5135,
      "Ġchicken": 5136,
      "Ġfigure": 5137,
      "Ġrestaurants": 5138,
      "Ġweapons": 5139,
      "Ġinspired": 5140,
      "ĠSweden": 5141,
      "ĠFIFA": 5142,
      "Ġfifth": 5143,
      "ĠAtlantic": 5144,
      "itzerland": 5145,
      "ĠKennedy": 5146,
      "Ġappeared": 5147,
      "Ġappropriate": 5148,
      "Ġparameter": 5149,
      "58": 5150,
      "BS": 5151,
      "ait": 5152,
      "fr": 5153,
      "fish": 5154,
      "ho": 5155,
      "hatt": 5156,
      "lim": 5157,
      "oking": 5158,
      "such": 5159,
      "uis": 5160,
      "vant": 5161,
      "win": 5162,
      "work": 5163,
      "Ġ?": 5164,
      "iny": 5165,
      "inks": 5166,
      "inux": 5167,
      "Ġpil": 5168,
      "Ġpairs": 5169,
      "Ġsus": 5170,
      "Ġsets": 5171,
      "Ġsyn": 5172,
      "oli": 5173,
      "Ġmicro": 5174,
      "Ġbomb": 5175,
      "ecti": 5176,
      "Ġeth": 5177,
      "ĠAb": 5178,
      "ĠAnt": 5179,
      "Ġgear": 5180,
      "Ġgross": 5181,
      "Ġgives": 5182,
      "rig": 5183,
      "ĠSn": 5184,
      "ĠSir": 5185,
      "ĠSeven": 5186,
      "iling": 5187,
      "Ġexact": 5188,
      "ett": 5189,
      "evens": 5190,
      "ĠCO": 5191,
      "Ġforced": 5192,
      "ĠPas": 5193,
      "term": 5194,
      "ateur": 5195,
      "Ġvote": 5196,
      "ĠBul": 5197,
      "ĠBig": 5198,
      "ĠBase": 5199,
      "ĠHu": 5200,
      "ĠHum": 5201,
      "Ġyoga": 5202,
      "ĠRoc": 5203,
      "ĠRome": 5204,
      "ĠRock": 5205,
      "ĠGar": 5206,
      "ĠWall": 5207,
      "Ġorange": 5208,
      "Ġrates": 5209,
      "ĠEgy": 5210,
      "ĠJr": 5211,
      "ĠJim": 5212,
      "ella": 5213,
      "ĠKore": 5214,
      "iance": 5215,
      "ĠInternet": 5216,
      "Ġevidence": 5217,
      "Ġsea": 5218,
      "Ġclust": 5219,
      "Ġperman": 5220,
      "Ġjoint": 5221,
      "ĠThat": 5222,
      "Ġyourself": 5223,
      "Ġroles": 5224,
      "tee": 5225,
      "ario": 5226,
      "Ġfinance": 5227,
      "phone": 5228,
      "Ġlearned": 5229,
      "ĠArab": 5230,
      "ĠArgent": 5231,
      "Ġfamilies": 5232,
      "ĠAnother": 5233,
      "Ġflavor": 5234,
      "Ġattacks": 5235,
      "Ġstarts": 5236,
      "Ġpolic": 5237,
      "ĠWarri": 5238,
      "Ġ1982": 5239,
      "ĠYouTube": 5240,
      "ĠSwitzerland": 5241,
      "ride": 5242,
      "rones": 5243,
      "Ġexperiment": 5244,
      "Ġdrum": 5245,
      "Ġprize": 5246,
      "Ġdepend": 5247,
      "Ġ1930": 5248,
      "Ġclasses": 5249,
      "Ġcurrently": 5250,
      "oleon": 5251,
      "Ġcampus": 5252,
      "Ġactivity": 5253,
      "Ġbillions": 5254,
      "astest": 5255,
      "Ġsounds": 5256,
      "Ġconcern": 5257,
      "Ġnovels": 5258,
      "Ġaudio": 5259,
      "Ġrecognition": 5260,
      "mitted": 5261,
      "Ġissue": 5262,
      "Ġdetermine": 5263,
      "Ġlayer": 5264,
      "Ġeye": 5265,
      "ĠMiddle": 5266,
      "Ġrecommend": 5267,
      "Ġsymbol": 5268,
      "Ġhonor": 5269,
      "Ġhorse": 5270,
      "Ġvacation": 5271,
      "ĠAdditionally": 5272,
      "Ġclassified": 5273,
      "Ġneighbor": 5274,
      "Ġsubsequently": 5275,
      "Ġfully": 5276,
      "ĠRevolution": 5277,
      "Ġorders": 5278,
      "ĠRichard": 5279,
      "Ġultimately": 5280,
      "John": 5281,
      "Ġmaxim": 5282,
      "Ġdismiss": 5283,
      "Ġcapacity": 5284,
      "Ġdespite": 5285,
      "80": 5286,
      "Am": 5287,
      "Follette": 5288,
      "NT": 5289,
      "Please": 5290,
      "ares": 5291,
      "east": 5292,
      "gs": 5293,
      "iation": 5294,
      "iest": 5295,
      "mosp": 5296,
      "ns": 5297,
      "ny": 5298,
      "oes": 5299,
      "plan": 5300,
      "power": 5301,
      "uals": 5302,
      "vard": 5303,
      "Ġtor": 5304,
      "Ġtall": 5305,
      "inations": 5306,
      "eries": 5307,
      "Ġple": 5308,
      "Ġpup": 5309,
      "Ġsal": 5310,
      "enge": 5311,
      "ouston": 5312,
      "Ġocean": 5313,
      "eded": 5314,
      "isa": 5315,
      "Ġmal": 5316,
      "Ġmach": 5317,
      "Ġmiss": 5318,
      "Ġrear": 5319,
      "Ġbirth": 5320,
      "itt": 5321,
      "ece": 5322,
      "ulk": 5323,
      "Ġdang": 5324,
      "Ġdiet": 5325,
      "Ġdaily": 5326,
      "enture": 5327,
      "uset": 5328,
      "uth": 5329,
      "ĠSur": 5330,
      "ĠSqu": 5331,
      "Ġexhib": 5332,
      "Ġthinking": 5333,
      "thi": 5334,
      "elt": 5335,
      "aded": 5336,
      "Ġnative": 5337,
      "Ġstands": 5338,
      "ĠMil": 5339,
      "ĠModern": 5340,
      "ĠPen": 5341,
      "ĠPower": 5342,
      "Ġassist": 5343,
      "Ġassig": 5344,
      "ĠFre": 5345,
      "ĠFound": 5346,
      "ĠBro": 5347,
      "Ġwhom": 5348,
      "ĠRon": 5349,
      "ĠRam": 5350,
      "ĠRob": 5351,
      "ĠGarc": 5352,
      "Ġalign": 5353,
      "Ġatmosp": 5354,
      "ĠLand": 5355,
      "ĠLight": 5356,
      "Ġrice": 5357,
      "Ġrule": 5358,
      "oper": 5359,
      "ĠNorm": 5360,
      "ĠNash": 5361,
      "istan": 5362,
      "ĠOh": 5363,
      "Ġcontact": 5364,
      "Ġplastic": 5365,
      "ested": 5366,
      "ĠKong": 5367,
      "Ġdefense": 5368,
      "achuset": 5369,
      "Ġuns": 5370,
      "Ġseem": 5371,
      "assachuset": 5372,
      "Ġperfect": 5373,
      "Ġgrass": 5374,
      "Ġbecomes": 5375,
      "Ġlibr": 5376,
      "Ġcommission": 5377,
      "Ġends": 5378,
      "ĠAmericans": 5379,
      "Ġupper": 5380,
      "Ġsoon": 5381,
      "ashion": 5382,
      "ollowing": 5383,
      "Ġoperations": 5384,
      "phas": 5385,
      "Ġamb": 5386,
      "Ġlists": 5387,
      "Ġcarried": 5388,
      "Ġ1993": 5389,
      "ativ": 5390,
      "Ġsupply": 5391,
      "Ġpoll": 5392,
      "Ġ1983": 5393,
      "inked": 5394,
      "Ġcontrast": 5395,
      "Ġprominent": 5396,
      "ĠSwiss": 5397,
      "Ġpassed": 5398,
      "Ġapproaches": 5399,
      "Ġ1950": 5400,
      "Ġdiscip": 5401,
      "Ġslightly": 5402,
      "Ġinvestment": 5403,
      "clus": 5404,
      "ĠFinancial": 5405,
      "annel": 5406,
      "2008": 5407,
      "Ġphysic": 5408,
      "ĠGovern": 5409,
      "ĠManhatt": 5410,
      "Ġdemonstr": 5411,
      "Ġconsoles": 5412,
      "Ġsignificantly": 5413,
      "ography": 5414,
      "Ġdevice": 5415,
      "Ġarticles": 5416,
      "Ġrecognized": 5417,
      "Ġartists": 5418,
      "Ġrequirements": 5419,
      "Ġtechnique": 5420,
      "Ġinitially": 5421,
      "Ġcustomers": 5422,
      "Ġzone": 5423,
      "Ġpenal": 5424,
      "ĠOffice": 5425,
      "ĠBerlin": 5426,
      "Ġphenomen": 5427,
      "Ġfantasy": 5428,
      "Ġmathem": 5429,
      "ĠMississippi": 5430,
      "Ġbudget": 5431,
      "Ġwebsite": 5432,
      "undreds": 5433,
      "ĠCarolina": 5434,
      "Ġearthquake": 5435,
      "Ġmobile": 5436,
      "Ġrespectively": 5437,
      "ĠLincoln": 5438,
      "Ġextremely": 5439,
      "Ġlyric": 5440,
      "assachusetts": 5441,
      "ĠManhattan": 5442,
      "\")": 5443,
      "81": 5444,
      "Geor": 5445,
      "No": 5446,
      "ais": 5447,
      "fast": 5448,
      "lit": 5449,
      "lers": 5450,
      "more": 5451,
      "rim": 5452,
      "sun": 5453,
      "water": 5454,
      "ĊĊ": 5455,
      "Ġ/": 5456,
      "Ġill": 5457,
      "ĠËĪ": 5458,
      "rey": 5459,
      "stappen": 5460,
      "arry": 5461,
      "Ġsat": 5462,
      "Ġsens": 5463,
      "Ġox": 5464,
      "aters": 5465,
      "orter": 5466,
      "Ġfle": 5467,
      "Ġfought": 5468,
      "Ġfastest": 5469,
      "olic": 5470,
      "Ġmist": 5471,
      "Ġmotor": 5472,
      "Ġbow": 5473,
      "Ġbur": 5474,
      "Ġbass": 5475,
      "Ġeating": 5476,
      "Ġdip": 5477,
      "Ġdiverse": 5478,
      "Ġdaughter": 5479,
      "roc": 5480,
      "ĠAp": 5481,
      "Ġgar": 5482,
      "Ġgot": 5483,
      "Ġgained": 5484,
      "riz": 5485,
      "uter": 5486,
      "ĠSil": 5487,
      "ĠSummer": 5488,
      "Ġprog": 5489,
      "Ġproto": 5490,
      "Ġlatter": 5491,
      "ĠCru": 5492,
      "ĠCons": 5493,
      "Ġplane": 5494,
      "ading": 5495,
      "ador": 5496,
      "Ġnom": 5497,
      "Ġcapture": 5498,
      "urrent": 5499,
      "ersey": 5500,
      "ĠModel": 5501,
      "Ġven": 5502,
      "ĠBal": 5503,
      "umin": 5504,
      "umes": 5505,
      "occo": 5506,
      "ĠHenry": 5507,
      "Ġconference": 5508,
      "Ġconstant": 5509,
      "ĠGal": 5510,
      "rompt": 5511,
      "Ġalcohol": 5512,
      "Ġ2001": 5513,
      "ĠLove": 5514,
      "ĠDog": 5515,
      "outheast": 5516,
      "lder": 5517,
      "earl": 5518,
      "emic": 5519,
      "abb": 5520,
      "ĠJupiter": 5521,
      "Ġchoice": 5522,
      "ortheast": 5523,
      "eller": 5524,
      "Ġoption": 5525,
      "Ġshown": 5526,
      "ĠKu": 5527,
      "ĠStevens": 5528,
      "ipel": 5529,
      "Ġnotably": 5530,
      "Ġmeat": 5531,
      "Ġresulted": 5532,
      "ĠValley": 5533,
      "Ġcommand": 5534,
      "Ġdoing": 5535,
      "Ġsimpl": 5536,
      "Ġquite": 5537,
      "Ġagree": 5538,
      "Ġagency": 5539,
      "Ġrespond": 5540,
      "Ġdisplay": 5541,
      "Ġformal": 5542,
      "Ġpartner": 5543,
      "ĠArsen": 5544,
      "Ġfeature": 5545,
      "Ġcarry": 5546,
      "Ġ1998": 5547,
      "Ġflag": 5548,
      "ikes": 5549,
      "Ġmarked": 5550,
      "ĠLeg": 5551,
      "encil": 5552,
      "Ġobtain": 5553,
      "Ġinvented": 5554,
      "Ġsetting": 5555,
      "Ġeffort": 5556,
      "fication": 5557,
      "Ġbrain": 5558,
      "Ġeconomics": 5559,
      "Ġ1968": 5560,
      "Ġlawyer": 5561,
      "ĠScot": 5562,
      "Ġexplain": 5563,
      "Ġwanted": 5564,
      "ederation": 5565,
      "Ġcompetitive": 5566,
      "ĠCarl": 5567,
      "Ġindustrial": 5568,
      "Ġpresented": 5569,
      "Ġmagaz": 5570,
      "ercury": 5571,
      "ĠMcC": 5572,
      "Ġemployees": 5573,
      "Ġaudience": 5574,
      "Ġhotel": 5575,
      "ĠElizabeth": 5576,
      "Ġwindows": 5577,
      "Ġlaunch": 5578,
      "Ġdecisions": 5579,
      "Ġheavy": 5580,
      "ĠLaFollette": 5581,
      "...": 5582,
      "Ġpresidential": 5583,
      "Ġtourist": 5584,
      "Ġpiece": 5585,
      "Ġliterature": 5586,
      "Ġvegetables": 5587,
      "semb": 5588,
      "Ġsufficient": 5589,
      "onymous": 5590,
      "Ġencour": 5591,
      "Ġvehicle": 5592,
      "Ġalternative": 5593,
      "ĠSteve": 5594,
      "Ġnormal": 5595,
      "Ġtransportation": 5596,
      "related": 5597,
      "ĠCouncil": 5598,
      "Ġimmediately": 5599,
      "Ġheadquarters": 5600,
      "Ġclean": 5601,
      "Ġacademic": 5602,
      "Ġingred": 5603,
      "ĠDiego": 5604,
      "ĠOsborne": 5605,
      "Ġresearc": 5606,
      "Ġpermanent": 5607,
      "Ġpolicies": 5608,
      ".:": 5609,
      "26": 5610,
      "43": 5611,
      "77": 5612,
      "According": 5613,
      "Taylor": 5614,
      "Un": 5615,
      "We": 5616,
      "bell": 5617,
      "foot": 5618,
      "lind": 5619,
      "uge": 5620,
      "wan": 5621,
      "well": 5622,
      "ÉĽ": 5623,
      "Ġtail": 5624,
      "Ġtick": 5625,
      "inary": 5626,
      "het": 5627,
      "ingu": 5628,
      "Ġpack": 5629,
      "also": 5630,
      "Ġculti": 5631,
      "Ġcake": 5632,
      "atural": 5633,
      "lete": 5634,
      "artment": 5635,
      "Ġfission": 5636,
      "Ġmut": 5637,
      "Ġreally": 5638,
      "Ġdom": 5639,
      "ĠAre": 5640,
      "ĠAge": 5641,
      "ĠAng": 5642,
      "Ġgirl": 5643,
      "erer": 5644,
      "uten": 5645,
      "ĠSal": 5646,
      "Ġexternal": 5647,
      "ete": 5648,
      "Ġlose": 5649,
      "ĠCub": 5650,
      "Ġplanned": 5651,
      "Ġnice": 5652,
      "ĠMur": 5653,
      "ĠPi": 5654,
      "Ġvul": 5655,
      "ĠFore": 5656,
      "ĠFederal": 5657,
      "ĠBur": 5658,
      "Ġhero": 5659,
      "odies": 5660,
      "ĠHere": 5661,
      "ĠHome": 5662,
      "othes": 5663,
      "Ġyet": 5664,
      "ĠRh": 5665,
      "ĠRose": 5666,
      "ĠList": 5667,
      "ĠLord": 5668,
      "Ġrh": 5669,
      "Ġrail": 5670,
      "ĠDen": 5671,
      "ĠNow": 5672,
      "ĠNext": 5673,
      "ĠOper": 5674,
      "ĠOrigin": 5675,
      "illing": 5676,
      "agn": 5677,
      "udd": 5678,
      "Ġspot": 5679,
      "essor": 5680,
      "Ġexpect": 5681,
      "aked": 5682,
      "iano": 5683,
      "Ġresulting": 5684,
      "Ġcloud": 5685,
      "Ġperce": 5686,
      "Ġdecade": 5687,
      "Ġteacher": 5688,
      "Ġgrape": 5689,
      "Ġliver": 5690,
      "Ġappeal": 5691,
      "Ġagric": 5692,
      "ighter": 5693,
      "obal": 5694,
      "Ġwines": 5695,
      "ĠShan": 5696,
      "ĠShow": 5697,
      "Ġ1986": 5698,
      "Ġefficient": 5699,
      "Ġ70": 5700,
      "Ġmining": 5701,
      "Ġchemical": 5702,
      "Ġ1963": 5703,
      "azz": 5704,
      "Ġextended": 5705,
      "ammy": 5706,
      "Ġ1947": 5707,
      "Ġaircraft": 5708,
      "ĠTrans": 5709,
      "ĠTrump": 5710,
      "Ġtesting": 5711,
      "ĠDef": 5712,
      "Ġofficer": 5713,
      "Ġprograms": 5714,
      "Ġconfirm": 5715,
      "apped": 5716,
      "Ġclubs": 5717,
      "ĠQue": 5718,
      "ĠBoth": 5719,
      "ĠPersia": 5720,
      "Ġaccounts": 5721,
      "Ġbasis": 5722,
      "ĠDavis": 5723,
      "Ġrepresented": 5724,
      "Ã¡n": 5725,
      "Ġunderstanding": 5726,
      "Ġtrying": 5727,
      "Ġreplaced": 5728,
      "ĠEnter": 5729,
      "atoes": 5730,
      "Ġrainbow": 5731,
      "ĠNFT": 5732,
      "Ġtropical": 5733,
      "Ġcelebrated": 5734,
      "Ġcorporate": 5735,
      "Ġvehicles": 5736,
      "Ġacquired": 5737,
      "ĠPayPal": 5738,
      "Ġphilosophy": 5739,
      "Ġbattery": 5740,
      "Ġreligious": 5741,
      "currency": 5742,
      "ĠHawai": 5743,
      "Ġfemale": 5744,
      "graphy": 5745,
      "Ġmachines": 5746,
      "29": 5747,
      "EC": 5748,
      "New": 5749,
      "PA": 5750,
      "WA": 5751,
      "William": 5752,
      "aik": 5753,
      "ba": 5754,
      "bour": 5755,
      "can": 5756,
      "ctive": 5757,
      "cious": 5758,
      "down": 5759,
      "fi": 5760,
      "gas": 5761,
      "gener": 5762,
      "ker": 5763,
      "med": 5764,
      "oom": 5765,
      "uz": 5766,
      "ugu": 5767,
      "ĠĠĊ": 5768,
      "eria": 5769,
      "Ġpet": 5770,
      "Ġpione": 5771,
      "Ġsu": 5772,
      "Ġsell": 5773,
      "Ġsoci": 5774,
      "Ġsources": 5775,
      "enic": 5776,
      "ora": 5777,
      "orize": 5778,
      "Ġfear": 5779,
      "Ġwire": 5780,
      "Ġwalking": 5781,
      "Ġmis": 5782,
      "Ġmouth": 5783,
      "Ġinform": 5784,
      "essee": 5785,
      "ecial": 5786,
      "Ġdial": 5787,
      "roke": 5788,
      "Ġgod": 5789,
      "rip": 5790,
      "Ġhat": 5791,
      "ĠSam": 5792,
      "ĠSport": 5793,
      "ĠSolar": 5794,
      "apol": 5795,
      "eting": 5796,
      "ĠTau": 5797,
      "ĠCom": 5798,
      "ĠCamb": 5799,
      "elly": 5800,
      "Ġsolved": 5801,
      "town": 5802,
      "ĠMos": 5803,
      "ĠMinist": 5804,
      "ĠPeter": 5805,
      "aya": 5806,
      "Ġvice": 5807,
      "ĠBob": 5808,
      "ĠBang": 5809,
      "ĠBattle": 5810,
      "umber": 5811,
      "ocol": 5812,
      "ĠHouston": 5813,
      "ĠRoyal": 5814,
      "ĠWay": 5815,
      "Ġ300": 5816,
      "Ġorbit": 5817,
      "anda": 5818,
      "ounds": 5819,
      "ĠLater": 5820,
      "Ġrare": 5821,
      "Ġ1985": 5822,
      "ĠOld": 5823,
      "ĠJul": 5824,
      "ĠJersey": 5825,
      "Ġarts": 5826,
      "Ġspin": 5827,
      "Ġspect": 5828,
      "Ġusage": 5829,
      "Ġkid": 5830,
      "Ġscoring": 5831,
      "agement": 5832,
      "epper": 5833,
      "ĠChief": 5834,
      "inton": 5835,
      "ervation": 5836,
      "onders": 5837,
      "ooth": 5838,
      "Ġimage": 5839,
      "lling": 5840,
      "Ġmembr": 5841,
      "ĠFormula": 5842,
      "Ġpeanut": 5843,
      "ancing": 5844,
      "Ġagg": 5845,
      "ilding": 5846,
      "Ġemphas": 5847,
      "ickn": 5848,
      "ĠExamples": 5849,
      "ologist": 5850,
      "Ġ48": 5851,
      "Ġamateur": 5852,
      "ugg": 5853,
      "Ġphr": 5854,
      "Ġvaluable": 5855,
      "Ġcarbon": 5856,
      "Ġflour": 5857,
      "Ġrelatively": 5858,
      "Ġsubst": 5859,
      "ĠSpark": 5860,
      "Ġmusical": 5861,
      "Ġmarkets": 5862,
      "Ġtransactions": 5863,
      "atalog": 5864,
      "Ġsurpass": 5865,
      "ennessee": 5866,
      "Ġpersonality": 5867,
      "Ġchess": 5868,
      "Ġbelieve": 5869,
      "Ġtechnologies": 5870,
      "Ġ1973": 5871,
      "Ġbiological": 5872,
      "Ġ1945": 5873,
      "Ġ1948": 5874,
      "Ġfacts": 5875,
      "Ġfactor": 5876,
      "ĠAdv": 5877,
      "Ġequal": 5878,
      "issions": 5879,
      "Ġdirected": 5880,
      "Ġtests": 5881,
      "ĠDevelop": 5882,
      "Ġbattle": 5883,
      "boards": 5884,
      "Ġoccurs": 5885,
      "ĠGeorg": 5886,
      "Ġinteresting": 5887,
      "Ġeasier": 5888,
      "ĠCoast": 5889,
      "Ġavailability": 5890,
      "Ġclimate": 5891,
      "Ġdefeat": 5892,
      "Ġmechanical": 5893,
      "ĠPlayer": 5894,
      "ĠTeam": 5895,
      "Ġreaching": 5896,
      "Ġinitial": 5897,
      "Ġopposed": 5898,
      "Ġcircum": 5899,
      "Ġgenetic": 5900,
      "Ġdebt": 5901,
      "Ġrecommended": 5902,
      "ciation": 5903,
      "ĠSingapore": 5904,
      "finals": 5905,
      "Ġmanufacturers": 5906,
      "Ġretired": 5907,
      "ĠVerstappen": 5908,
      "ĠGlobal": 5909,
      "Ġinstitutions": 5910,
      "Ġtrillion": 5911,
      "Ġnegative": 5912,
      "Ġinterview": 5913,
      "Ġfestival": 5914,
      "ĠNobel": 5915,
      "ĠJoseph": 5916,
      "Ġbrief": 5917,
      "Ġtransition": 5918,
      "Ġprices": 5919,
      "Ġneighborhood": 5920,
      "ativity": 5921,
      "ĠArsenal": 5922,
      "'ll": 5923,
      "):": 5924,
      "45": 5925,
      "60": 5926,
      "86": 5927,
      "And": 5928,
      "During": 5929,
      "IN": 5930,
      "Liang": 5931,
      "Pe": 5932,
      "cles": 5933,
      "cling": 5934,
      "dam": 5935,
      "eff": 5936,
      "fare": 5937,
      "hips": 5938,
      "iri": 5939,
      "mart": 5940,
      "mark": 5941,
      "oir": 5942,
      "rm": 5943,
      "rang": 5944,
      "uled": 5945,
      "vide": 5946,
      "vign": 5947,
      "wind": 5948,
      "yond": 5949,
      "£o": 5950,
      "Ġiron": 5951,
      "Ġaware": 5952,
      "Ġapart": 5953,
      "incess": 5954,
      "inson": 5955,
      "erver": 5956,
      "Ġpod": 5957,
      "Ġcraft": 5958,
      "athe": 5959,
      "leball": 5960,
      "orph": 5961,
      "ender": 5962,
      "Ġfaster": 5963,
      "Ġmer": 5964,
      "Ġmap": 5965,
      "Ġmess": 5966,
      "Ġmental": 5967,
      "Ġbot": 5968,
      "ompl": 5969,
      "Ġdru": 5970,
      "Ġdrop": 5971,
      "icon": 5972,
      "bles": 5973,
      "ription": 5974,
      "Ġhi": 5975,
      "Ġhom": 5976,
      "Ġholid": 5977,
      "ĠTest": 5978,
      "ĠTennessee": 5979,
      "ĠCast": 5980,
      "aum": 5981,
      "Ġexecutive": 5982,
      "Ġstars": 5983,
      "irus": 5984,
      "ĠMes": 5985,
      "ĠMachine": 5986,
      "ĠMilan": 5987,
      "ĠMassachusetts": 5988,
      "ĠPoint": 5989,
      "ĠPinot": 5990,
      "Ġvs": 5991,
      "ĠFed": 5992,
      "ĠBell": 5993,
      "ocado": 5994,
      "ĠWeb": 5995,
      "Ġalle": 5996,
      "Ġ32": 5997,
      "Ġattri": 5998,
      "Ġatomic": 5999,
      "ĠLinux": 6000,
      "ĠDes": 6001,
      "ĠDri": 6002,
      "ĠDoc": 6003,
      "ĠEle": 6004,
      "ĠNeed": 6005,
      "istory": 6006,
      "Ġmolec": 6007,
      "Ġacts": 6008,
      "ĠJes": 6009,
      "illa": 6010,
      "ĠVol": 6011,
      "iva": 6012,
      "Ġresorts": 6013,
      "osing": 6014,
      "Ġspan": 6015,
      "Ġopin": 6016,
      "ĠStadium": 6017,
      "Ġworth": 6018,
      "Ġevolution": 6019,
      "Ġseems": 6020,
      "Ġadver": 6021,
      "Ġparti": 6022,
      "Ġstrateg": 6023,
      "Ġdecide": 6024,
      "Ġimpl": 6025,
      "Ġju": 6026,
      "ĠThrones": 6027,
      "Ġpeace": 6028,
      "Ġtypical": 6029,
      "Ġagent": 6030,
      "Ġindex": 6031,
      "ĠArti": 6032,
      "Ġfeed": 6033,
      "fully": 6034,
      "Ġsupervised": 6035,
      "Ġearned": 6036,
      "ĠSpring": 6037,
      "rows": 6038,
      "Ġstudent": 6039,
      "Ġ60": 6040,
      "Ġtransl": 6041,
      "Ġassass": 6042,
      "Ġassets": 6043,
      "Ġcharges": 6044,
      "Ġpoor": 6045,
      "Ġserves": 6046,
      "Ġreduc": 6047,
      "Ġ1976": 6048,
      "Ġaccompl": 6049,
      "Ġreprod": 6050,
      "Ġdragon": 6051,
      "ĠIslam": 6052,
      "Ġinstruction": 6053,
      "ĠGreece": 6054,
      "Ġcorrup": 6055,
      "Ġactor": 6056,
      "Ġactors": 6057,
      "Ġcondition": 6058,
      "Ġinvestig": 6059,
      "Ġlegis": 6060,
      "Ġcultures": 6061,
      "Ġfalling": 6062,
      "letes": 6063,
      "Ġmarried": 6064,
      "Ġmilk": 6065,
      "Ġqualify": 6066,
      "Ġfocused": 6067,
      "Ġappearance": 6068,
      "Ġprotect": 6069,
      "Ġvillages": 6070,
      "Ġcontinuous": 6071,
      "ĠMichigan": 6072,
      "Ġproduces": 6073,
      "Ġfeeling": 6074,
      "ĠResearch": 6075,
      "Ġfunds": 6076,
      "Ġpurchased": 6077,
      "Ġautomob": 6078,
      "Ġkilomet": 6079,
      "Ġbehavi": 6080,
      "Ġpaint": 6081,
      "ĠCharl": 6082,
      "Ġtendency": 6083,
      "Ġprobability": 6084,
      "ĠMountain": 6085,
      "Ġsituation": 6086,
      "Ġroute": 6087,
      "Ġescape": 6088,
      "Ġpowers": 6089,
      "Ġdominant": 6090,
      "aniel": 6091,
      "ĠTurkey": 6092,
      "Ġtransformer": 6093,
      "ĠDepartment": 6094,
      "ĠTimberlake": 6095,
      "Ġtower": 6096,
      "ĠThomas": 6097,
      "ĠDemocratic": 6098,
      "Ġopportunity": 6099,
      "ĠBritain": 6100,
      "Ġproposed": 6101,
      "Ġaccurate": 6102,
      "Ġsauce": 6103,
      "ĠEgypt": 6104,
      "ĠArgentina": 6105,
      "Ġdiplom": 6106,
      "sembly": 6107,
      "Ġvulner": 6108,
      "vignon": 6109,
      ")\"": 6110,
      "83": 6111,
      "BI": 6112,
      "Bl": 6113,
      "FL": 6114,
      "One": 6115,
      "SM": 6116,
      "comm": 6117,
      "citation": 6118,
      "fol": 6119,
      "fit": 6120,
      "fall": 6121,
      "father": 6122,
      "feld": 6123,
      "gal": 6124,
      "gation": 6125,
      "iac": 6126,
      "ivery": 6127,
      "lia": 6128,
      "nam": 6129,
      "pop": 6130,
      "rong": 6131,
      "sm": 6132,
      "selling": 6133,
      "uke": 6134,
      "world": 6135,
      "yram": 6136,
      "ÊĬ": 6137,
      "à¤": 6138,
      "Ġir": 6139,
      "Ġtsun": 6140,
      "inal": 6141,
      "instein": 6142,
      "imen": 6143,
      "arly": 6144,
      "Ġpus": 6145,
      "Ġplease": 6146,
      "Ġsense": 6147,
      "anks": 6148,
      "ania": 6149,
      "ened": 6150,
      "enger": 6151,
      "orial": 6152,
      "endulk": 6153,
      "Ġfirm": 6154,
      "Ġfashion": 6155,
      "Ġreaction": 6156,
      "Ġinten": 6157,
      "ulpt": 6158,
      "usiness": 6159,
      "ĠAC": 6160,
      "sight": 6161,
      "sitive": 6162,
      "sities": 6163,
      "Ġhomes": 6164,
      "Ġhappy": 6165,
      "lant": 6166,
      "ĠSk": 6167,
      "ĠSNES": 6168,
      "ĠSaint": 6169,
      "apse": 6170,
      "chang": 6171,
      "ĠTake": 6172,
      "Ġthous": 6173,
      "adu": 6174,
      "Ġgenerate": 6175,
      "Ġnet": 6176,
      "Ġnickn": 6177,
      "Ġsolution": 6178,
      "resp": 6179,
      "Ġstadium": 6180,
      "uris": 6181,
      "urther": 6182,
      "idel": 6183,
      "ĠMas": 6184,
      "ĠMand": 6185,
      "ĠMem": 6186,
      "ĠPor": 6187,
      "ĠPress": 6188,
      "ĠFollowing": 6189,
      "ĠBh": 6190,
      "Ġheard": 6191,
      "ĠHur": 6192,
      "ĠHockey": 6193,
      "ĠRem": 6194,
      "lywood": 6195,
      "ĠWel": 6196,
      "ĠLas": 6197,
      "ĠLank": 6198,
      "Ġrough": 6199,
      "ĠDoug": 6200,
      "ĠDespite": 6201,
      "Ġcoming": 6202,
      "ĠEag": 6203,
      "ĠNetw": 6204,
      "igm": 6205,
      "ears": 6206,
      "Ġacid": 6207,
      "abies": 6208,
      "abadd": 6209,
      "ĠOtt": 6210,
      "ĠJew": 6211,
      "ivan": 6212,
      "Ġspok": 6213,
      "Ġsplit": 6214,
      "Ġtrail": 6215,
      "Ġtraff": 6216,
      "Ġcompris": 6217,
      "Ġsculpt": 6218,
      "Ġshif": 6219,
      "Ġshop": 6220,
      "ĠStan": 6221,
      "Ġmatter": 6222,
      "Ġselected": 6223,
      "Ġplays": 6224,
      "Ġjuris": 6225,
      "lla": 6226,
      "Ġgrapes": 6227,
      "ancy": 6228,
      "Ġprison": 6229,
      "Ġmetropolitan": 6230,
      "Ġsoap": 6231,
      "place": 6232,
      "oyota": 6233,
      "Ġformation": 6234,
      "Ġcoat": 6235,
      "Ġtheme": 6236,
      "perial": 6237,
      "Ġcolon": 6238,
      "Ġdifferences": 6239,
      "ĠExpl": 6240,
      "Ġindic": 6241,
      "Ġmanner": 6242,
      "forcement": 6243,
      "Ġcentre": 6244,
      "2021": 6245,
      "Ġaddress": 6246,
      "Ġbreeds": 6247,
      "ahoe": 6248,
      "auty": 6249,
      "Ġleadership": 6250,
      "Ġrefere": 6251,
      "Ġsurf": 6252,
      "Ġowners": 6253,
      "Ġperforming": 6254,
      "Ġpromoted": 6255,
      "Ġcomplet": 6256,
      "Ġ1978": 6257,
      "ĠBeat": 6258,
      "Ġestate": 6259,
      "Ġmedal": 6260,
      "Ġmedium": 6261,
      "veness": 6262,
      "Ġguarant": 6263,
      "Ġcurrency": 6264,
      "Ġeverything": 6265,
      "Ġpublicly": 6266,
      "ĠPho": 6267,
      "Ġ1949": 6268,
      "Ġbusinesses": 6269,
      "Ġequival": 6270,
      "Ġcomputing": 6271,
      "ĠPrincess": 6272,
      "espread": 6273,
      "class": 6274,
      "Ġvisitors": 6275,
      "Ġinvolve": 6276,
      "Ġwidespread": 6277,
      "Ġphysics": 6278,
      "ĠIII": 6279,
      "Ġcombined": 6280,
      "Ġstret": 6281,
      "ĠGuard": 6282,
      "Ġcerti": 6283,
      "Ġdistributed": 6284,
      "Ġdevices": 6285,
      "Ġready": 6286,
      "adesh": 6287,
      "Ġclimbing": 6288,
      "Ġobservation": 6289,
      "Ġforeign": 6290,
      "Ġproteins": 6291,
      "Ġscientists": 6292,
      "Ġcategories": 6293,
      "ĠRepublican": 6294,
      "Ġopposite": 6295,
      "Ġsequence": 6296,
      "CAA": 6297,
      "Ġasked": 6298,
      "Ġterritory": 6299,
      "ĠMadrid": 6300,
      "ĠNavy": 6301,
      "Ġjudge": 6302,
      "Ġpronoun": 6303,
      "Ġemotions": 6304,
      "Ġbreathing": 6305,
      "ĠNapoleon": 6306,
      "isphere": 6307,
      "ĠBaseball": 6308,
      "ĠWarriors": 6309,
      "thiop": 6310,
      "ĠGarcia": 6311,
      "ĠStevenson": 6312,
      "Ġingredients": 6313,
      "Ġcultiv": 6314,
      "ĠEntertainment": 6315,
      "ocolate": 6316,
      "endulkar": 6317,
      "abaddi": 6318,
      "Ġtraffic": 6319,
      "23": 6320,
      "84": 6321,
      "88": 6322,
      "Af": 6323,
      "All": 6324,
      "EM": 6325,
      "FC": 6326,
      "Japan": 6327,
      "Or": 6328,
      "Vs": 6329,
      "With": 6330,
      "West": 6331,
      "cing": 6332,
      "da": 6333,
      "eing": 6334,
      "from": 6335,
      "gary": 6336,
      "gian": 6337,
      "hus": 6338,
      "kes": 6339,
      "life": 6340,
      "min": 6341,
      "mag": 6342,
      "non": 6343,
      "pa": 6344,
      "rum": 6345,
      "tured": 6346,
      "vered": 6347,
      "xi": 6348,
      "xis": 6349,
      "Ã£o": 6350,
      "âĪ": 6351,
      "ĠÂ°": 6352,
      "Ġtim": 6353,
      "inch": 6354,
      "inity": 6355,
      "ero": 6356,
      "Ġpra": 6357,
      "Ġsch": 6358,
      "Ġtheatre": 6359,
      "Ġtherm": 6360,
      "enber": 6361,
      "ouver": 6362,
      "Ġcm": 6363,
      "Ġcul": 6364,
      "Ġcere": 6365,
      "lee": 6366,
      "orking": 6367,
      "ishes": 6368,
      "Ġfame": 6369,
      "Ġflex": 6370,
      "Ġreact": 6371,
      "Ġrevers": 6372,
      "Ġtom": 6373,
      "Ġtopped": 6374,
      "ections": 6375,
      "Ġgain": 6376,
      "uto": 6377,
      "utation": 6378,
      "Ġhair": 6379,
      "Ġhabit": 6380,
      "Ġhuge": 6381,
      "ĠSant": 6382,
      "Ġproced": 6383,
      "ĠTam": 6384,
      "ĠTechnology": 6385,
      "ĠCy": 6386,
      "nings": 6387,
      "Ġplans": 6388,
      "ghter": 6389,
      "ĠIran": 6390,
      "Ġstim": 6391,
      "Ġstra": 6392,
      "Ġstress": 6393,
      "uru": 6394,
      "ĠPublic": 6395,
      "Ġbeaches": 6396,
      "ĠFar": 6397,
      "ĠFant": 6398,
      "ĠFour": 6399,
      "ĠFilm": 6400,
      "ĠBre": 6401,
      "ĠBern": 6402,
      "ĠBank": 6403,
      "ĠBridge": 6404,
      "ĠBrown": 6405,
      "ĠBudd": 6406,
      "oding": 6407,
      "sey": 6408,
      "ĠThen": 6409,
      "ĠTheatre": 6410,
      "ĠRace": 6411,
      "ĠRang": 6412,
      "ĠGet": 6413,
      "ĠGall": 6414,
      "ĠWW": 6415,
      "ĠWalt": 6416,
      "Ġ34": 6417,
      "ĠLife": 6418,
      "ĠDark": 6419,
      "ĠEr": 6420,
      "ĠEnd": 6421,
      "Ġacces": 6422,
      "ĠUC": 6423,
      "ĠVict": 6424,
      "izon": 6425,
      "Ġwheel": 6426,
      "Ġplaced": 6427,
      "Ġexpan": 6428,
      "estyle": 6429,
      "Ġshoot": 6430,
      "ĠKer": 6431,
      "ĠKen": 6432,
      "ĠStep": 6433,
      "iana": 6434,
      "Ġincred": 6435,
      "Ġnote": 6436,
      "Ġnotable": 6437,
      "ĠChile": 6438,
      "pping": 6439,
      "Ġseat": 6440,
      "Ġdeck": 6441,
      "Ġimag": 6442,
      "ensity": 6443,
      "Ġliber": 6444,
      "Ġapple": 6445,
      "ancouver": 6446,
      "entially": 6447,
      "Ġmetal": 6448,
      "Ġmetres": 6449,
      "ighth": 6450,
      "Ġdesk": 6451,
      "Ġoperation": 6452,
      "Ġsecret": 6453,
      "Ġoffered": 6454,
      "Ġcovers": 6455,
      "Ġresponses": 6456,
      "ologists": 6457,
      "Ġ45": 6458,
      "Ġamaz": 6459,
      "Ġ1996": 6460,
      "ĠAPIs": 6461,
      "atically": 6462,
      "Ġflu": 6463,
      "Ġsuppl": 6464,
      "Ġearliest": 6465,
      "Ġsubm": 6466,
      "Ġadding": 6467,
      "Ġasset": 6468,
      "Ġ1984": 6469,
      "ocked": 6470,
      "ullivan": 6471,
      "Ġpopularity": 6472,
      "boh": 6473,
      "Ġremoved": 6474,
      "Ġbelief": 6475,
      "Ġ1979": 6476,
      "ĠProd": 6477,
      "Ġlocations": 6478,
      "Ġmedical": 6479,
      "ĠColor": 6480,
      "Ġadvoc": 6481,
      "Ġpurpos": 6482,
      "Ġaccomp": 6483,
      "ĠSciences": 6484,
      "Ġdrivers": 6485,
      "Ġorganized": 6486,
      "Ġexperi": 6487,
      "ĠMarvel": 6488,
      "ĠClass": 6489,
      "porary": 6490,
      "owski": 6491,
      "Ġeditor": 6492,
      "Ġcomputation": 6493,
      "Ġpositions": 6494,
      "Ġengineers": 6495,
      "Ġ1939": 6496,
      "Ġcollective": 6497,
      "Ġintroduction": 6498,
      "Ġregional": 6499,
      "Ġsentence": 6500,
      "Ġfocuses": 6501,
      "Ġinterests": 6502,
      "Ġvalid": 6503,
      "Ġafford": 6504,
      "ĠâĢĺ": 6505,
      "Ġcivilization": 6506,
      "Station": 6507,
      "Ġelse": 6508,
      "Ġcommunicate": 6509,
      "Ġdetermined": 6510,
      "Ġsnowboard": 6511,
      "Ġattempts": 6512,
      "Ġcopies": 6513,
      "Ġexcell": 6514,
      "Ġessay": 6515,
      "ĠCaptain": 6516,
      "Ġkitchen": 6517,
      "Ġbenefit": 6518,
      "Ġarcade": 6519,
      "Ġtribes": 6520,
      "Ġmanufacturer": 6521,
      "Ġcharts": 6522,
      "listen": 6523,
      "ijing": 6524,
      "Ġwicket": 6525,
      "Ġclosely": 6526,
      "ĠTrophy": 6527,
      "Ġminimum": 6528,
      "ĠAlexander": 6529,
      "Ġquantity": 6530,
      "Ġconflict": 6531,
      "Ġletters": 6532,
      "Ġblindness": 6533,
      "Ġcontributions": 6534,
      "Ġathletes": 6535,
      "ĠEconom": 6536,
      "Ġadapted": 6537,
      "Ġatmosphere": 6538,
      "Ġoxy": 6539,
      "Ġmolecules": 6540,
      "ĠBeatles": 6541,
      "enberger": 6542,
      "Ġamazing": 6543,
      "\"?": 6544,
      "63": 6545,
      "CH": 6546,
      "GH": 6547,
      "HL": 6548,
      "RM": 6549,
      "Re": 6550,
      "Se": 6551,
      "To": 6552,
      "World": 6553,
      "Yes": 6554,
      "con": 6555,
      "cell": 6556,
      "iot": 6557,
      "kl": 6558,
      "lo": 6559,
      "oles": 6560,
      "pan": 6561,
      "pris": 6562,
      "rons": 6563,
      "td": 6564,
      "tors": 6565,
      "uy": 6566,
      "wing": 6567,
      "yal": 6568,
      "zed": 6569,
      "¿½": 6570,
      "ï¿½": 6571,
      "Ġ#": 6572,
      "Ġtube": 6573,
      "inem": 6574,
      "Ġpit": 6575,
      "Ġcatalog": 6576,
      "atches": 6577,
      "leton": 6578,
      "Ġfell": 6579,
      "Ġwake": 6580,
      "Ġrein": 6581,
      "Ġreality": 6582,
      "Ġbom": 6583,
      "oma": 6584,
      "Ġinaug": 6585,
      "Ġdance": 6586,
      "Ġdream": 6587,
      "rox": 6588,
      "roid": 6589,
      "ĠAud": 6590,
      "sil": 6591,
      "rier": 6592,
      "Ġhun": 6593,
      "Ġhundreds": 6594,
      "ĠSri": 6595,
      "ĠSide": 6596,
      "ĠSalt": 6597,
      "aplas": 6598,
      "Ġexh": 6599,
      "Ġexchange": 6600,
      "amer": 6601,
      "amily": 6602,
      "antum": 6603,
      "ĠTag": 6604,
      "ĠTax": 6605,
      "Ġlabor": 6606,
      "Ġllam": 6607,
      "ĠCat": 6608,
      "throp": 6609,
      "Ġsolo": 6610,
      "Ġsolutions": 6611,
      "unk": 6612,
      "unch": 6613,
      "ghan": 6614,
      "ghai": 6615,
      "ĠMajor": 6616,
      "ĠPil": 6617,
      "ĠPict": 6618,
      "Ġbeauty": 6619,
      "Ġvast": 6620,
      "ĠFame": 6621,
      "ĠBra": 6622,
      "ĠBusiness": 6623,
      "ĠHimal": 6624,
      "ĠHistor": 6625,
      "oting": 6626,
      "otation": 6627,
      "ĠWhe": 6628,
      "ĠWild": 6629,
      "ĠWomen": 6630,
      "ĠLast": 6631,
      "ĠLong": 6632,
      "ĠLabor": 6633,
      "ĠDream": 6634,
      "ĠEvery": 6635,
      "ĠNSA": 6636,
      "versi": 6637,
      "igs": 6638,
      "igen": 6639,
      "ardo": 6640,
      "ĠUk": 6641,
      "ĠUse": 6642,
      "ĠVi": 6643,
      "ĠViet": 6644,
      "ĠVancouver": 6645,
      "Ġrecon": 6646,
      "Ġresort": 6647,
      "osaur": 6648,
      "âĢ¯": 6649,
      "Ġspending": 6650,
      "Ġplot": 6651,
      "ights": 6652,
      "Ġshot": 6653,
      "ĠStud": 6654,
      "ipe": 6655,
      "ĠChampion": 6656,
      "Ġunits": 6657,
      "rael": 6658,
      "rative": 6659,
      "Ġpersist": 6660,
      "orses": 6661,
      "Ġoutc": 6662,
      "Ġsoil": 6663,
      "ĠIndust": 6664,
      "194": 6665,
      "Ġcovered": 6666,
      "Ġfinally": 6667,
      "Ġ55": 6668,
      "riteria": 6669,
      "ĠArt": 6670,
      "oven": 6671,
      "ĠAnimal": 6672,
      "Ġfloor": 6673,
      "ooker": 6674,
      "ĠShift": 6675,
      "ĠShiva": 6676,
      "coin": 6677,
      "Ġinvasion": 6678,
      "Ġpoet": 6679,
      "Ġcream": 6680,
      "iversities": 6681,
      "Ġinterface": 6682,
      "Ġ1967": 6683,
      "Ġ1975": 6684,
      "ĠProf": 6685,
      "Ġmusicians": 6686,
      "ĠColomb": 6687,
      "Ġmyth": 6688,
      "Ġextra": 6689,
      "Ġrequest": 6690,
      "Ġexperiences": 6691,
      "Ġsucce": 6692,
      "hana": 6693,
      "Ġ1941": 6694,
      "ĠIsrael": 6695,
      "Ġ1955": 6696,
      "Ġpresence": 6697,
      "Ġactual": 6698,
      "Ġcomputers": 6699,
      "Ġdiscuss": 6700,
      "Ġoccup": 6701,
      "Ġrestric": 6702,
      "Ġalongside": 6703,
      "Ġgenes": 6704,
      "Ġconnection": 6705,
      "Ġconnecting": 6706,
      "ĠAnderson": 6707,
      "Ġnetworks": 6708,
      "ĠMusk": 6709,
      "ĠOpenAI": 6710,
      "Ġtournaments": 6711,
      "Ġpayments": 6712,
      "Ġreading": 6713,
      "Ġcylind": 6714,
      "ĠPlayStation": 6715,
      "Ġloan": 6716,
      "Ġrevolution": 6717,
      "Ġauthority": 6718,
      "abetes": 6719,
      "Ġproperty": 6720,
      "Ġcomponent": 6721,
      "ĠSoft": 6722,
      "Ġemerg": 6723,
      "Ġpresidency": 6724,
      "ĠMaryland": 6725,
      "ĠCharles": 6726,
      "Ġmaintained": 6727,
      "Ġtouch": 6728,
      "Ġhyp": 6729,
      "Ġliterary": 6730,
      "Ġresidents": 6731,
      "Ġchallenge": 6732,
      "Ġidentifying": 6733,
      "Provide": 6734,
      "writer": 6735,
      "Ġpalace": 6736,
      "Ġterritories": 6737,
      "Ġsubsequent": 6738,
      "Ġsurvive": 6739,
      "Ġfrequency": 6740,
      "Ġindependent": 6741,
      "Ġdestination": 6742,
      "Ġjournalist": 6743,
      "ĠSaturn": 6744,
      "Ġadopted": 6745,
      "ĠBoliv": 6746,
      "Ġwickets": 6747,
      "Ġmuseums": 6748,
      "ĠTemple": 6749,
      "ĠBetween": 6750,
      "Ġpractices": 6751,
      "Ġepisodes": 6752,
      "DAM": 6753,
      "Ġsevere": 6754,
      "VID": 6755,
      "Ġcouple": 6756,
      "Ġfailure": 6757,
      "Ġextensive": 6758,
      "Ġdataset": 6759,
      "Ġspirit": 6760,
      "ĠHindu": 6761,
      "ĠRetri": 6762,
      "ĠUtah": 6763,
      "Ġopponent": 6764,
      "Ġcontroversi": 6765,
      "Ġpossibly": 6766,
      "Ġpersp": 6767,
      "Ġaspects": 6768,
      "ĠVisit": 6769,
      "Ġincorporated": 6770,
      "ĠJimmy": 6771,
      "Ġcluster": 6772,
      "clusive": 6773,
      "George": 6774,
      "Ġresearchers": 6775,
      "Ġmembrane": 6776,
      "ĠFederer": 6777,
      "Ġaccomplish": 6778,
      "Ġkilometres": 6779,
      "Ġtsunami": 6780,
      "ĠLanka": 6781,
      "Ġcompletely": 6782,
      "Ġstraight": 6783,
      "Ġexpansion": 6784,
      "Ġpurposes": 6785,
      "Ġexcellent": 6786,
      "Ġoxygen": 6787,
      "Ġllamas": 6788,
      "\").": 6789,
      "'d": 6790,
      "69": 6791,
      "70": 6792,
      "79": 6793,
      "OT": 6794,
      "PS": 6795,
      "Pre": 6796,
      "Sc": 6797,
      "avery": 6798,
      "bass": 6799,
      "bury": 6800,
      "bbe": 6801,
      "fe": 6802,
      "iPhone": 6803,
      "ioph": 6804,
      "know": 6805,
      "no": 6806,
      "nes": 6807,
      "yard": 6808,
      "Ã¥": 6809,
      "Ã¼": 6810,
      "Åį": 6811,
      "Ġstem": 6812,
      "Ġrom": 6813,
      "Ġtack": 6814,
      "Ġtied": 6815,
      "Ġtalk": 6816,
      "inus": 6817,
      "inction": 6818,
      "ima": 6819,
      "imm": 6820,
      "Ġpict": 6821,
      "Ġpadd": 6822,
      "Ġpencil": 6823,
      "Ġpyram": 6824,
      "Ġsave": 6825,
      "Ġsav": 6826,
      "Ġsail": 6827,
      "Ġselling": 6828,
      "anium": 6829,
      "alo": 6830,
      "alem": 6831,
      "enix": 6832,
      "ouch": 6833,
      "Ġcoup": 6834,
      "lem": 6835,
      "Ġfans": 6836,
      "Ġfolk": 6837,
      "Ġmill": 6838,
      "Ġmale": 6839,
      "Ġbill": 6840,
      "Ġbikes": 6841,
      "Ġbodies": 6842,
      "itz": 6843,
      "itter": 6844,
      "oms": 6845,
      "omics": 6846,
      "Ġinternet": 6847,
      "ĠAT": 6848,
      "ĠAriz": 6849,
      "uts": 6850,
      "Ġhall": 6851,
      "Ġhub": 6852,
      "Ġhits": 6853,
      "Ġhope": 6854,
      "ĠSab": 6855,
      "ĠSyd": 6856,
      "ĠSky": 6857,
      "ĠSOC": 6858,
      "ila": 6859,
      "Ġprop": 6860,
      "etro": 6861,
      "chi": 6862,
      "chain": 6863,
      "ĠTri": 6864,
      "ĠTele": 6865,
      "ĠToyota": 6866,
      "ĠTendulkar": 6867,
      "Ġlots": 6868,
      "ĠCari": 6869,
      "ĠCricket": 6870,
      "ĠCros": 6871,
      "Ġpreferences": 6872,
      "adal": 6873,
      "Ġnortheast": 6874,
      "Ġcaptain": 6875,
      "acle": 6876,
      "Ġactions": 6877,
      "unciation": 6878,
      "Ġstocks": 6879,
      "ĠMore": 6880,
      "ĠMao": 6881,
      "ĠMercury": 6882,
      "ĠPul": 6883,
      "ĠPop": 6884,
      "ĠPost": 6885,
      "Ġvar": 6886,
      "Ġvess": 6887,
      "Ġvoice": 6888,
      "ĠBil": 6889,
      "ĠBull": 6890,
      "Ġ(\"": 6891,
      "ĠHay": 6892,
      "ĠHung": 6893,
      "ultural": 6894,
      "Ġyeast": 6895,
      "ĠRing": 6896,
      "ĠRod": 6897,
      "ĠWill": 6898,
      "Ġalp": 6899,
      "Ġalph": 6900,
      "ĠLi": 6901,
      "ĠLisa": 6902,
      "ĠLtd": 6903,
      "Ġrich": 6904,
      "ĠDC": 6905,
      "ĠDh": 6906,
      "ĠDrew": 6907,
      "ĠElectric": 6908,
      "ĠEinstein": 6909,
      "ĠNep": 6910,
      "ĠNCAA": 6911,
      "igning": 6912,
      "Ġ1920": 6913,
      "abin": 6914,
      "abil": 6915,
      "ĠOf": 6916,
      "ĠOft": 6917,
      "ĠJord": 6918,
      "ĠJacks": 6919,
      "Ġcho": 6920,
      "Ġchocolate": 6921,
      "ĠVan": 6922,
      "asty": 6923,
      "bernet": 6924,
      "Ġexpress": 6925,
      "uben": 6926,
      "Ġshorter": 6927,
      "ervoir": 6928,
      "ansas": 6929,
      "Ġevol": 6930,
      "Ġselection": 6931,
      "Ġparad": 6932,
      "Ġweigh": 6933,
      "olding": 6934,
      "ĠThrough": 6935,
      "Ġgrant": 6936,
      "Ġgrains": 6937,
      "Ġrope": 6938,
      "ancun": 6939,
      "under": 6940,
      "ruit": 6941,
      "awn": 6942,
      "orney": 6943,
      "Ġdiff": 6944,
      "Ġdisp": 6945,
      "Ġdisrup": 6946,
      "Ġoperates": 6947,
      "Ġcool": 6948,
      "Ġthemes": 6949,
      "Ġdoctor": 6950,
      "Ġrivers": 6951,
      "Ġride": 6952,
      "Ġrival": 6953,
      "ĠAltern": 6954,
      "Ġwinners": 6955,
      "Ġdevelopers": 6956,
      "Ġflav": 6957,
      "ĠSpecial": 6958,
      "Ġstartup": 6959,
      "Ġblog": 6960,
      "ribe": 6961,
      "Ġmainly": 6962,
      "Ġobjective": 6963,
      "Ġ1987": 6964,
      "Ġsettle": 6965,
      "Ġskin": 6966,
      "Ġskill": 6967,
      "Ġdesigns": 6968,
      "Ġinteractions": 6969,
      "lishing": 6970,
      "Ġeconomies": 6971,
      "Ġ1969": 6972,
      "Ġtechnical": 6973,
      "Ġdram": 6974,
      "cedes": 6975,
      "Ġelev": 6976,
      "Ġ1940": 6977,
      "Ġ1951": 6978,
      "Ġ1958": 6979,
      "Ġairport": 6980,
      "Ġdetails": 6981,
      "Ġslavery": 6982,
      "Ġfields": 6983,
      "ĠAllen": 6984,
      "Ġparagraphs": 6985,
      "Ġhandle": 6986,
      "ĠOrder": 6987,
      "Ġsupporting": 6988,
      "clusion": 6989,
      "Ġassociation": 6990,
      "ĠFinally": 6991,
      "Ġgenome": 6992,
      "Ġmartial": 6993,
      "Ġcrash": 6994,
      "2019": 6995,
      "ieving": 6996,
      "Ã©e": 6997,
      "Ġimproved": 6998,
      "Ġindividuals": 6999,
      "Ġelectricity": 7000,
      "Ġtraditionally": 7001,
      "Ġsixth": 7002,
      "Ġaffect": 7003,
      "Ġraise": 7004,
      "Ġsites": 7005,
      "Ġviewed": 7006,
      "Ġobservations": 7007,
      "Ġcycle": 7008,
      "Ġglobally": 7009,
      "Ġlimit": 7010,
      "Ġversions": 7011,
      "Ġtargeted": 7012,
      "Ġbanking": 7013,
      "Ġyounger": 7014,
      "Ġhosted": 7015,
      "ĠMorocco": 7016,
      "Ġbrothers": 7017,
      "Ġcategor": 7018,
      "Ġcategory": 7019,
      "Ġbuying": 7020,
      "Ġinsurance": 7021,
      "Ġsituated": 7022,
      "Ġclaimed": 7023,
      "Ġconsumers": 7024,
      "Ġcampaigns": 7025,
      "Ġcredit": 7026,
      "Ġretire": 7027,
      "Ġtransferred": 7028,
      "Ġcandidate": 7029,
      "Ġinnovations": 7030,
      "Ġguns": 7031,
      "Ġfighting": 7032,
      "Ġhappened": 7033,
      "ĠSauvignon": 7034,
      "ĠWalmart": 7035,
      "Ġpremi": 7036,
      "ĠVirginia": 7037,
      "unicip": 7038,
      "Ġepisode": 7039,
      "ĠCEO": 7040,
      "burgh": 7041,
      "andscape": 7042,
      "Ġgraduated": 7043,
      "ĠBengal": 7044,
      "ĠWolfenberger": 7045,
      "Ġlicens": 7046,
      "ĠKorean": 7047,
      "Ġmathematics": 7048,
      "ĠArea": 7049,
      "ĠShanghai": 7050,
      "ĠHawaii": 7051,
      "Ġphrase": 7052,
      "ĠEagles": 7053,
      "Ġreferee": 7054,
      "ĠHimalay": 7055,
      "bbean": 7056,
      "ĠCaribbean": 7057,
      "ĠJackson": 7058,
      "bernetes": 7059,
      ".)": 7060,
      "05": 7061,
      "33": 7062,
      "Born": 7063,
      "GPT": 7064,
      "IT": 7065,
      "IV": 7066,
      "Pa": 7067,
      "RG": 7068,
      "RL": 7069,
      "Tr": 7070,
      "Tim": 7071,
      "])": 7072,
      "aits": 7073,
      "ailed": 7074,
      "bec": 7075,
      "bra": 7076,
      "cord": 7077,
      "do": 7078,
      "gun": 7079,
      "host": 7080,
      "ja": 7081,
      "ken": 7082,
      "mouth": 7083,
      "nec": 7084,
      "nic": 7085,
      "oti": 7086,
      "rast": 7087,
      "uation": 7088,
      "wed": 7089,
      "wise": 7090,
      "wig": 7091,
      "ye": 7092,
      "ying": 7093,
      "Â·": 7094,
      "Ã¨": 7095,
      "Ġtal": 7096,
      "Ġtun": 7097,
      "Ġtub": 7098,
      "Ġtold": 7099,
      "Ġtends": 7100,
      "inces": 7101,
      "station": 7102,
      "tile": 7103,
      "Ġpair": 7104,
      "Ġpush": 7105,
      "Ġsister": 7106,
      "Ġcro": 7107,
      "Ġcous": 7108,
      "Ġcuis": 7109,
      "atar": 7110,
      "asure": 7111,
      "Ġfan": 7112,
      "Ġfat": 7113,
      "Ġfab": 7114,
      "Ġfelt": 7115,
      "Ġwall": 7116,
      "Ġwrong": 7117,
      "oly": 7118,
      "olves": 7119,
      "olars": 7120,
      "Ġmel": 7121,
      "Ġmission": 7122,
      "Ġreform": 7123,
      "Ġbath": 7124,
      "Ġbark": 7125,
      "itrogen": 7126,
      "Ġded": 7127,
      "Ġdub": 7128,
      "Ġdinner": 7129,
      "entures": 7130,
      "ropy": 7131,
      "Ġgal": 7132,
      "uting": 7133,
      "Ġhus": 7134,
      "ĠSepar": 7135,
      "vez": 7136,
      "etary": 7137,
      "etfl": 7138,
      "ĠTun": 7139,
      "ĠTahoe": 7140,
      "ĠCost": 7141,
      "Ġthreat": 7142,
      "thur": 7143,
      "elve": 7144,
      "Ġfort": 7145,
      "Ġnations": 7146,
      "Ġnomin": 7147,
      "Ġstores": 7148,
      "uration": 7149,
      "urally": 7150,
      "iden": 7151,
      "idance": 7152,
      "ĠMic": 7153,
      "ĠMake": 7154,
      "ĠPak": 7155,
      "Ġbeef": 7156,
      "Ġbeyond": 7157,
      "Ġvan": 7158,
      "ultane": 7159,
      "ĠRas": 7160,
      "ĠGini": 7161,
      "Ġ33": 7162,
      "ando": 7163,
      "ĠLew": 7164,
      "Ġrub": 7165,
      "ĠDNA": 7166,
      "ĠDaniel": 7167,
      "Ġcomfort": 7168,
      "ĠElect": 7169,
      "ĠNick": 7170,
      "keep": 7171,
      "They": 7172,
      "Ġleve": 7173,
      "ucc": 7174,
      "ĠJer": 7175,
      "ĠJDAM": 7176,
      "Ġchose": 7177,
      "Ġchair": 7178,
      "agues": 7179,
      "Ġarmy": 7180,
      "Ġresource": 7181,
      "Ġreserve": 7182,
      "Ġspices": 7183,
      "Ġspicy": 7184,
      "Ġcompar": 7185,
      "ester": 7186,
      "Ġshr": 7187,
      "ĠKed": 7188,
      "ĠKum": 7189,
      "ĠStart": 7190,
      "aka": 7191,
      "Ġdefensive": 7192,
      "Ġnoted": 7193,
      "Ġnotes": 7194,
      "ĠChry": 7195,
      "Ġselect": 7196,
      "Ġclo": 7197,
      "Ġenh": 7198,
      "Ġparties": 7199,
      "Ġjacket": 7200,
      "shaped": 7201,
      "Ġlighter": 7202,
      "Ġdoor": 7203,
      "Ġapply": 7204,
      "ieties": 7205,
      "aws": 7206,
      "guage": 7207,
      "Ġprime": 7208,
      "ornado": 7209,
      "Ġgoes": 7210,
      "ĠReal": 7211,
      "teen": 7212,
      "Ġcollect": 7213,
      "Ġcolumn": 7214,
      "angle": 7215,
      "ĠYellow": 7216,
      "ĠYoga": 7217,
      "Ġgreater": 7218,
      "Ġrid": 7219,
      "Ġproved": 7220,
      "Ġsmart": 7221,
      "Ġsmoking": 7222,
      "atis": 7223,
      "ĠAny": 7224,
      "Ġdeveloping": 7225,
      "Ġreli": 7226,
      "Ġrelax": 7227,
      "Ġsubsc": 7228,
      "Ġfoundation": 7229,
      "athers": 7230,
      "Ġdistingu": 7231,
      "Ġinstall": 7232,
      "ikipedia": 7233,
      "Ġleaders": 7234,
      "encing": 7235,
      "Ġreflect": 7236,
      "Ġassum": 7237,
      "Ġ1981": 7238,
      "Ġsurvey": 7239,
      "ibr": 7240,
      "Ġpopularized": 7241,
      "Ġbrands": 7242,
      "Ġremain": 7243,
      "Ġvisited": 7244,
      "Ġ1961": 7245,
      "ĠIndianapol": 7246,
      "Ġ1972": 7247,
      "ĠBeijing": 7248,
      "ĠColumb": 7249,
      "ĠAustria": 7250,
      "ĠScott": 7251,
      "Ġguidance": 7252,
      "Ġimportance": 7253,
      "Ġcontinues": 7254,
      "ĠPlus": 7255,
      "engers": 7256,
      "Ġ1954": 7257,
      "Ġconsult": 7258,
      "ĠHarvard": 7259,
      "Though": 7260,
      "Ġcausing": 7261,
      "Ġevening": 7262,
      "ĠDead": 7263,
      "Ġmovements": 7264,
      "Ġballs": 7265,
      "Ġfewer": 7266,
      "Ġideal": 7267,
      "Ġprofessionals": 7268,
      "Ġcrack": 7269,
      "Ġindustries": 7270,
      "Ġfeaturing": 7271,
      "Ġexisted": 7272,
      "ĠEdward": 7273,
      "ĠMuseum": 7274,
      "Ġsunlight": 7275,
      "Ġprojects": 7276,
      "Ġspecialized": 7277,
      "going": 7278,
      "ĠCommon": 7279,
      "ĠCommission": 7280,
      "Ġconclud": 7281,
      "matical": 7282,
      "Ġbullet": 7283,
      "Ġproducing": 7284,
      "Ġregarding": 7285,
      "western": 7286,
      "Ġregulation": 7287,
      "Ġregulations": 7288,
      "Ġfirearm": 7289,
      "ĠAirlines": 7290,
      "colm": 7291,
      "Ġmixture": 7292,
      "Ġnucle": 7293,
      "Ġrelationships": 7294,
      "Ġlifet": 7295,
      "Ġemerged": 7296,
      "Ġhyper": 7297,
      "Ġvegetable": 7298,
      "Ġeffectively": 7299,
      "Ġparticipants": 7300,
      "Ġstatistics": 7301,
      "Ġfault": 7302,
      "Ġlabour": 7303,
      "Ġinjuries": 7304,
      "ĠCapital": 7305,
      "Ġescal": 7306,
      "Ġaccepted": 7307,
      "ĠRegion": 7308,
      "Ġjobs": 7309,
      "ĠEngineering": 7310,
      "Ġprinciples": 7311,
      "Ġadjust": 7312,
      "Ġrestaurant": 7313,
      "Ġfantastic": 7314,
      "Ġindependence": 7315,
      "Ġhydrogen": 7316,
      "Ġhousing": 7317,
      "Ġhouses": 7318,
      "rolled": 7319,
      "ĠHemisphere": 7320,
      "Ġsilver": 7321,
      "titude": 7322,
      "Ġadministration": 7323,
      "ructure": 7324,
      "Ġcorner": 7325,
      "Ġnavig": 7326,
      "Ġnarrow": 7327,
      "ĠIrish": 7328,
      "Ġouter": 7329,
      "Ġmammals": 7330,
      "otype": 7331,
      "ĠOhio": 7332,
      "Ġlibrary": 7333,
      "Ġphenomenon": 7334,
      "ĠScotland": 7335,
      "Ġattribut": 7336,
      "ĠNeedle": 7337,
      "Ġautomobile": 7338,
      "respond": 7339,
      "Ġspoken": 7340,
      "ĠPhoenix": 7341,
      "ĠTamil": 7342,
      "Ġstimul": 7343,
      "ĠRangers": 7344,
      "ĠVictor": 7345,
      "Ġbombs": 7346,
      "ĠUkrain": 7347,
      "Ġcontroversial": 7348,
      "Ġperspective": 7349,
      "ĠCrosby": 7350,
      "ĠOften": 7351,
      "ĠJordan": 7352,
      "etflix": 7353,
      "ĠChrys": 7354,
      "ĠIndianapolis": 7355,
      "400": 7356,
      "Bet": 7357,
      "Che": 7358,
      "Cor": 7359,
      "Fin": 7360,
      "Gu": 7361,
      "Large": 7362,
      "Most": 7363,
      "Ne": 7364,
      "Sullivan": 7365,
      "](": 7366,
      "aver": 7367,
      "bound": 7368,
      "chest": 7369,
      "called": 7370,
      "di": 7371,
      "dough": 7372,
      "fri": 7373,
      "hamm": 7374,
      "iw": 7375,
      "ios": 7376,
      "kuc": 7377,
      "kins": 7378,
      "long": 7379,
      "mi": 7380,
      "mo": 7381,
      "ngest": 7382,
      "rich": 7383,
      "ramb": 7384,
      "rane": 7385,
      "sell": 7386,
      "source": 7387,
      "tes": 7388,
      "tered": 7389,
      "ua": 7390,
      "uous": 7391,
      "yl": 7392,
      "yan": 7393,
      "É¡": 7394,
      "ĠÎ": 7395,
      "Ġign": 7396,
      "Ġap": 7397,
      "style": 7398,
      "imble": 7399,
      "erts": 7400,
      "tise": 7401,
      "Ġpull": 7402,
      "Ġpepper": 7403,
      "Ġsq": 7404,
      "Ġsac": 7405,
      "Ġsex": 7406,
      "alse": 7407,
      "Ġcogn": 7408,
      "Ġcooking": 7409,
      "Ġcaught": 7410,
      "Ġcriteria": 7411,
      "letic": 7412,
      "orse": 7413,
      "Ġfurn": 7414,
      "Ġfair": 7415,
      "Ġfaced": 7416,
      "Ġfoul": 7417,
      "Ġwaves": 7418,
      "olph": 7419,
      "Ġresist": 7420,
      "Ġreward": 7421,
      "Ġrepar": 7422,
      "Ġtoward": 7423,
      "Ġtodd": 7424,
      "Ġbowl": 7425,
      "Ġbabies": 7426,
      "Ġinner": 7427,
      "Ġintention": 7428,
      "Ġdough": 7429,
      "ici": 7430,
      "ication": 7431,
      "ĠANT": 7432,
      "Ġhop": 7433,
      "Ġhorses": 7434,
      "ĠSub": 7435,
      "ĠSix": 7436,
      "ĠSym": 7437,
      "ĠSnow": 7438,
      "Ġextr": 7439,
      "Ġexclusive": 7440,
      "ette": 7441,
      "Ġlin": 7442,
      "Ġload": 7443,
      "ĠCro": 7444,
      "ĠCant": 7445,
      "ĠCath": 7446,
      "ĠComet": 7447,
      "through": 7448,
      "Ġgenerated": 7449,
      "Ġcaptured": 7450,
      "Ġauth": 7451,
      "unning": 7452,
      "unities": 7453,
      "ĠMel": 7454,
      "ĠPan": 7455,
      "ayer": 7456,
      "Ġbears": 7457,
      "ĠFace": 7458,
      "ĠField": 7459,
      "ĠFederation": 7460,
      "ĠFurther": 7461,
      "ĠBER": 7462,
      "ĠBoys": 7463,
      "Ġ($": 7464,
      "oder": 7465,
      "oday": 7466,
      "ĠHal": 7467,
      "ĠHun": 7468,
      "ĠHig": 7469,
      "Ġconce": 7470,
      "Ġconsequ": 7471,
      "ifferen": 7472,
      "ĠRel": 7473,
      "ĠRad": 7474,
      "ĠRaj": 7475,
      "ĠGro": 7476,
      "ĠWhere": 7477,
      "ĠWikipedia": 7478,
      "ĠWimble": 7479,
      "Ġattract": 7480,
      "ĠLes": 7481,
      "ĠLab": 7482,
      "ĠLuc": 7483,
      "ĠLion": 7484,
      "ĠLive": 7485,
      "ĠLittle": 7486,
      "ĠDays": 7487,
      "ĠEthiop": 7488,
      "ĠNations": 7489,
      "Ġ1918": 7490,
      "Ġmotiv": 7491,
      "abowski": 7492,
      "upervised": 7493,
      "ĠOil": 7494,
      "Ġchips": 7495,
      "ĠUV": 7496,
      "ĠUl": 7497,
      "ĠVari": 7498,
      "agram": 7499,
      "Ġtracks": 7500,
      "Ġyoungest": 7501,
      "Ġkick": 7502,
      "uba": 7503,
      "ĠStr": 7504,
      "ĠStand": 7505,
      "hedral": 7506,
      "lesc": 7507,
      "ĠInf": 7508,
      "Ġdefending": 7509,
      "ĠChÃ¡": 7510,
      "Ġabstr": 7511,
      "Ġunknown": 7512,
      "Ġunchang": 7513,
      "Ġseg": 7514,
      "Ġmeant": 7515,
      "Ġenable": 7516,
      "Ġengin": 7517,
      "rawn": 7518,
      "Ġstrugg": 7519,
      "onder": 7520,
      "onduct": 7521,
      "Ġjum": 7522,
      "igned": 7523,
      "Ġending": 7524,
      "Ġdoors": 7525,
      "weight": 7526,
      "wegian": 7527,
      "Ġquantum": 7528,
      "Ġoutdoor": 7529,
      "Ġmetric": 7530,
      "plif": 7531,
      "ĠReuben": 7532,
      "195": 7533,
      "oyd": 7534,
      "tenance": 7535,
      "spec": 7536,
      "Ġoperated": 7537,
      "Ġformally": 7538,
      "obi": 7539,
      "ĠYo": 7540,
      "hentic": 7541,
      "ĠCountry": 7542,
      "Ġphase": 7543,
      "ĠAlph": 7544,
      "Ġsmallest": 7545,
      "ĠAnne": 7546,
      "Ġnewsp": 7547,
      "Ġfounding": 7548,
      "ĠNews": 7549,
      "Ġbreaking": 7550,
      "Ġinstance": 7551,
      "Ġseconds": 7552,
      "Ġleads": 7553,
      "Ġvariants": 7554,
      "Ġcharged": 7555,
      "Ġshell": 7556,
      "onsin": 7557,
      "Ġrunner": 7558,
      "Ġinfrast": 7559,
      "Ġkept": 7560,
      "trained": 7561,
      "irds": 7562,
      "Ġownership": 7563,
      "Ġminister": 7564,
      "Ġdesignated": 7565,
      "Ġbackground": 7566,
      "ĠYoung": 7567,
      "Ġframes": 7568,
      "Ġinteract": 7569,
      "Ġremote": 7570,
      "Ġ1962": 7571,
      "Ġnaturally": 7572,
      "rossing": 7573,
      "Ġ1977": 7574,
      "Ġpassengers": 7575,
      "Ġdidn": 7576,
      "vengers": 7577,
      "Ġtriathlon": 7578,
      "Ġdownstream": 7579,
      "Ġguard": 7580,
      "Ġexpert": 7581,
      "ĠHoward": 7582,
      "Ġavocado": 7583,
      "ebt": 7584,
      "Ġ1959": 7585,
      "ĠAdm": 7586,
      "Ġcorrespond": 7587,
      "Ġreceiving": 7588,
      "ambur": 7589,
      "Ġoccasion": 7590,
      "ĠPradesh": 7591,
      "Ġengineer": 7592,
      "Ġlegs": 7593,
      "Ġvisiting": 7594,
      "Ġinvolving": 7595,
      "Ġtrend": 7596,
      "ĠPresid": 7597,
      "Ġdescribes": 7598,
      "Ġgenus": 7599,
      "Ġcircular": 7600,
      "ieval": 7601,
      "Ġformerly": 7602,
      "standing": 7603,
      "Ġstanding": 7604,
      "Ġmagic": 7605,
      "Ġkeyboard": 7606,
      "Ġelectrical": 7607,
      "Ġexistence": 7608,
      "arctic": 7609,
      "Ġbegins": 7610,
      "ĠEduc": 7611,
      "Ġappearing": 7612,
      "Ġdeliver": 7613,
      "ĠSuns": 7614,
      "Ġmeasures": 7615,
      "Ġconcent": 7616,
      "Ġclimates": 7617,
      "break": 7618,
      "Ġgolfer": 7619,
      "Ġloop": 7620,
      "Ġestimates": 7621,
      "Ġconsiderable": 7622,
      "Ġsuperior": 7623,
      "sterdam": 7624,
      "iola": 7625,
      "Ġmanagers": 7626,
      "Ġpatent": 7627,
      "Ġreplace": 7628,
      "Ġdiabetes": 7629,
      "Ġcomplexity": 7630,
      "Ġbirds": 7631,
      "Ġlifestyle": 7632,
      "ĠOffic": 7633,
      "prise": 7634,
      "ĠDelhi": 7635,
      "ipped": 7636,
      "ippers": 7637,
      "Ġbroadcast": 7638,
      "Ġpickleball": 7639,
      "ospital": 7640,
      "issile": 7641,
      "Ġfictional": 7642,
      "Ġinjured": 7643,
      "Ġdebuted": 7644,
      "isconsin": 7645,
      "Ġpowered": 7646,
      "Ġclassification": 7647,
      "Ġsuggests": 7648,
      "Ġclearly": 7649,
      "ĠVersion": 7650,
      "ĠFerr": 7651,
      "Ġintegrated": 7652,
      "Ġmathematical": 7653,
      "ĠWalter": 7654,
      "ĠJustin": 7655,
      "Ġdomesticated": 7656,
      "Ġrecipient": 7657,
      "Ġcommittee": 7658,
      "position": 7659,
      "Ġpronunciation": 7660,
      "Ġpercentage": 7661,
      "ĠDemocr": 7662,
      "Ġhappiness": 7663,
      "Ġarrived": 7664,
      "Ġupdates": 7665,
      "ĠSoccer": 7666,
      "Ġexception": 7667,
      "ĠDirector": 7668,
      "Ġfinishing": 7669,
      "flower": 7670,
      "ython": 7671,
      "Ġtheoretical": 7672,
      "Ġsustain": 7673,
      "ĠCOVID": 7674,
      "Ġpuppy": 7675,
      "Ġdangerous": 7676,
      "Ġpenalty": 7677,
      "Ġprotocol": 7678,
      "Ġdomain": 7679,
      "Ġagriculture": 7680,
      "Ġaggressive": 7681,
      "efficient": 7682,
      "aumkuc": 7683,
      "folio": 7684,
      "Ġjurisd": 7685,
      "ĠStephen": 7686,
      "Ġfluid": 7687,
      "Ġaccompan": 7688,
      "Ġexperienced": 7689,
      "ĠTagore": 7690,
      "ĠNepal": 7691,
      "Ġparadigm": 7692,
      "Ġfabric": 7693,
      "Ġhusband": 7694,
      "ĠChrysler": 7695,
      "ĠBERT": 7696,
      "ifferent": 7697,
      "ĠWimbledon": 7698,
      "ĠChÃ¡vez": 7699,
      "Ġabstract": 7700,
      "Ġunchanged": 7701,
      "Ġengines": 7702,
      "Ġinfrastructure": 7703,
      "aumkuchen": 7704,
      "'.": 7705,
      "66": 7706,
      "Are": 7707,
      "App": 7708,
      "Best": 7709,
      "Car": 7710,
      "Desc": 7711,
      "El": 7712,
      "LE": 7713,
      "LLM": 7714,
      "Mich": 7715,
      "Many": 7716,
      "RO": 7717,
      "Red": 7718,
      "Rec": 7719,
      "Ste": 7720,
      "September": 7721,
      "VP": 7722,
      "bows": 7723,
      "body": 7724,
      "car": 7725,
      "ctic": 7726,
      "cks": 7727,
      "dri": 7728,
      "dah": 7729,
      "grossing": 7730,
      "hr": 7731,
      "hum": 7732,
      "hop": 7733,
      "hire": 7734,
      "iov": 7735,
      "jection": 7736,
      "log": 7737,
      "osition": 7738,
      "press": 7739,
      "pret": 7740,
      "rise": 7741,
      "vin": 7742,
      "vious": 7743,
      "worth": 7744,
      "yes": 7745,
      "É¾": 7746,
      "ÉĶ": 7747,
      "ÊĴ": 7748,
      "ĠÂ": 7749,
      "Ġaid": 7750,
      "Ġtac": 7751,
      "Ġtune": 7752,
      "Ġtaught": 7753,
      "sting": 7754,
      "state": 7755,
      "onto": 7756,
      "imate": 7757,
      "inger": 7758,
      "Ġpand": 7759,
      "Ġpill": 7760,
      "Ġpink": 7761,
      "Ġpaid": 7762,
      "Ġpiano": 7763,
      "Ġsour": 7764,
      "Ġsamp": 7765,
      "Ġsides": 7766,
      "Ġsizes": 7767,
      "anz": 7768,
      "aline": 7769,
      "tional": 7770,
      "Ġcas": 7771,
      "oration": 7772,
      "isher": 7773,
      "Ġfaces": 7774,
      "Ġfavour": 7775,
      "Ġwatches": 7776,
      "Ġmile": 7777,
      "Ġmode": 7778,
      "Ġmigr": 7779,
      "Ġtoy": 7780,
      "Ġbor": 7781,
      "Ġbid": 7782,
      "Ġdiam": 7783,
      "roy": 7784,
      "ĠAth": 7785,
      "Ġgall": 7786,
      "Ġgets": 7787,
      "Ġgaming": 7788,
      "Ġhur": 7789,
      "Ġhour": 7790,
      "Ġhole": 7791,
      "Ġance": 7792,
      "ĠSol": 7793,
      "ĠSlash": 7794,
      "ĠSoutheast": 7795,
      "ilit": 7796,
      "aping": 7797,
      "Ġexam": 7798,
      "Ġexcept": 7799,
      "antry": 7800,
      "ĠTop": 7801,
      "ĠTitan": 7802,
      "Ġlies": 7803,
      "Ġlock": 7804,
      "Ġlink": 7805,
      "Ġlakes": 7806,
      "Ġlaid": 7807,
      "ĠCA": 7808,
      "ĠCold": 7809,
      "ĠCreek": 7810,
      "aun": 7811,
      "eling": 7812,
      "acÃ¡n": 7813,
      "Ġauthentic": 7814,
      "unior": 7815,
      "tok": 7816,
      "resents": 7817,
      "ithm": 7818,
      "Ġstick": 7819,
      "Ġstories": 7820,
      "Ġstaff": 7821,
      "idden": 7822,
      "ĠML": 7823,
      "ĠMat": 7824,
      "ĠMun": 7825,
      "ĠMill": 7826,
      "ĠMario": 7827,
      "ĠPand": 7828,
      "Ġbeings": 7829,
      "Ġwithd": 7830,
      "Ġvic": 7831,
      "ĠFall": 7832,
      "ĠFort": 7833,
      "ĠFellow": 7834,
      "ĠBon": 7835,
      "ĠBru": 7836,
      "ĠBorn": 7837,
      "ĠBros": 7838,
      "uma": 7839,
      "ĠHart": 7840,
      "ĠHills": 7841,
      "Ġconcer": 7842,
      "Ġconstitution": 7843,
      "Ġyarn": 7844,
      "ĠRom": 7845,
      "ĠRid": 7846,
      "ĠRog": 7847,
      "lyn": 7848,
      "ĠGun": 7849,
      "ĠGate": 7850,
      "ĠGhana": 7851,
      "ĠWin": 7852,
      "ĠWalk": 7853,
      "ĠWright": 7854,
      "ĠWonders": 7855,
      "ĠWisconsin": 7856,
      "ĠLet": 7857,
      "ĠLev": 7858,
      "ĠLear": 7859,
      "Ġrac": 7860,
      "Ġraces": 7861,
      "ĠDar": 7862,
      "ĠDev": 7863,
      "ĠEp": 7864,
      "opher": 7865,
      "ĠNLP": 7866,
      "verning": 7867,
      "verty": 7868,
      "Ġ1917": 7869,
      "Ġmoist": 7870,
      "Ġacknow": 7871,
      "emer": 7872,
      "abling": 7873,
      "abama": 7874,
      "ucination": 7875,
      "ĠJon": 7876,
      "ĠJoy": 7877,
      "Ġchicks": 7878,
      "ĠUp": 7879,
      "ĠUsing": 7880,
      "Ġrecre": 7881,
      "Ġrecur": 7882,
      "ivals": 7883,
      "izard": 7884,
      "orms": 7885,
      "Ġtraits": 7886,
      "pson": 7887,
      "berts": 7888,
      "Ġcomprom": 7889,
      "Ġcompute": 7890,
      "itional": 7891,
      "ogs": 7892,
      "Ġshut": 7893,
      "Ġshared": 7894,
      "Ġsharing": 7895,
      "Ġshaped": 7896,
      "Ġshares": 7897,
      "ĠKar": 7898,
      "ĠKey": 7899,
      "ĠKolk": 7900,
      "ĠStaff": 7901,
      "aren": 7902,
      "ĠInv": 7903,
      "ĠInstead": 7904,
      "Ġdefence": 7905,
      "achin": 7906,
      "avid": 7907,
      "ampa": 7908,
      "Ġuniversities": 7909,
      "Ġseek": 7910,
      "Ġenabling": 7911,
      "Ġparks": 7912,
      "Ġplayoff": 7913,
      "ishing": 7914,
      "Ġ150": 7915,
      "Ġdecline": 7916,
      "ĠThames": 7917,
      "athon": 7918,
      "Ġallies": 7919,
      "aware": 7920,
      "Ġgoverning": 7921,
      "peare": 7922,
      "Ġrespect": 7923,
      "oylation": 7924,
      "Ġoffering": 7925,
      "Ġoffensive": 7926,
      "oba": 7927,
      "phant": 7928,
      "Ġamplif": 7929,
      "cessive": 7930,
      "irman": 7931,
      "ugal": 7932,
      "Ġrif": 7933,
      "ifications": 7934,
      "Ġsmooth": 7935,
      "Ġmuscle": 7936,
      "ĠShakes": 7937,
      "itecture": 7938,
      "Ġ65": 7939,
      "Ġcalend": 7940,
      "Ġtransaction": 7941,
      "timore": 7942,
      "encies": 7943,
      "Ġmillions": 7944,
      "Ġvariations": 7945,
      "Ġassess": 7946,
      "Ġanyone": 7947,
      "enna": 7948,
      "Ġpoverty": 7949,
      "ĠWhit": 7950,
      "Ġminute": 7951,
      "oky": 7952,
      "strong": 7953,
      "Ġorigins": 7954,
      "Ġbroke": 7955,
      "Ġbroken": 7956,
      "Ġremaining": 7957,
      "Ġ1966": 7958,
      "Ġmonit": 7959,
      "Ġ1974": 7960,
      "Ġgoods": 7961,
      "ĠColl": 7962,
      "189": 7963,
      "ĠSche": 7964,
      "Ġrepresents": 7965,
      "Ġlasted": 7966,
      "Ġcontinent": 7967,
      "ĠAdams": 7968,
      "ĠCalgary": 7969,
      "ĠTherefore": 7970,
      "ĠConstitution": 7971,
      "arma": 7972,
      "Ġcompetitions": 7973,
      "Ġcompetitor": 7974,
      "Ġretro": 7975,
      "Ġ1937": 7976,
      "Ġcontrols": 7977,
      "Ġcontrolled": 7978,
      "Ġbatting": 7979,
      "Ġdescribing": 7980,
      "Ġspecifically": 7981,
      "iterrane": 7982,
      "Ġgenre": 7983,
      "Ġmarri": 7984,
      "Ġconnect": 7985,
      "Ġclassic": 7986,
      "ĠAndrew": 7987,
      "Ġsentences": 7988,
      "ĠBoat": 7989,
      "ĠPrivate": 7990,
      "Ġinterested": 7991,
      "ĠManagement": 7992,
      "Ġstreet": 7993,
      "Ġappearances": 7994,
      "Ġdelivery": 7995,
      "goti": 7996,
      "ĠPeru": 7997,
      "Ġchanging": 7998,
      "Ġemployed": 7999,
      "Ġamounts": 8000,
      "Ġmechanics": 8001,
      "Ġrepresenting": 8002,
      "Ġwinds": 8003,
      "Ġclosest": 8004,
      "Ġbreakfast": 8005,
      "Ġelimin": 8006,
      "Ġsteel": 8007,
      "ĠSchabowski": 8008,
      "Ġtargets": 8009,
      "Ġcompeting": 8010,
      "Ġcompeted": 8011,
      "Ġproperties": 8012,
      "Ġenvironmental": 8013,
      "Ġtemperatures": 8014,
      "Ġvictories": 8015,
      "Ġopposing": 8016,
      "Ġplatforms": 8017,
      "Ġcopper": 8018,
      "Ġwoodwind": 8019,
      "ĠMalay": 8020,
      "Ġessential": 8021,
      "Ġsituations": 8022,
      "Ġborders": 8023,
      "ĠPoland": 8024,
      "Ġclaims": 8025,
      "Ġchickens": 8026,
      "Ġphotography": 8027,
      "ĠPortland": 8028,
      "Ġhitting": 8029,
      "Ġneighb": 8030,
      "Ġsuggested": 8031,
      "Ġcredited": 8032,
      "India": 8033,
      "Ġnormally": 8034,
      "Ġfrequently": 8035,
      "Ġconvention": 8036,
      "Ġweapon": 8037,
      "Ġinnovation": 8038,
      "ĠStock": 8039,
      "ĠOliver": 8040,
      "ĠAutom": 8041,
      "Ġsleeping": 8042,
      "Ġinstitution": 8043,
      "Ġcontributed": 8044,
      "leveland": 8045,
      "Ġpracticing": 8046,
      "Ġcriticism": 8047,
      "Ġhappens": 8048,
      "Ġopportunities": 8049,
      "Ġblockchain": 8050,
      "Ġcryptocurrency": 8051,
      "ĠTerrit": 8052,
      "Ġvirtual": 8053,
      "Ġadministrative": 8054,
      "Ġdrafted": 8055,
      "Ġdynamic": 8056,
      "ĠSocial": 8057,
      "Ġvocals": 8058,
      "Ġdatasets": 8059,
      "Ġchallenges": 8060,
      "Ġsenior": 8061,
      "Ġharnesses": 8062,
      "gorithm": 8063,
      "ĠBuilding": 8064,
      "Ġpredicting": 8065,
      "Ġportion": 8066,
      "ĠNorwegian": 8067,
      "Ġranging": 8068,
      "Ġdeployed": 8069,
      "Ġdiscovery": 8070,
      "Ġteaching": 8071,
      "Ġconcerns": 8072,
      "ĠRonald": 8073,
      "Ġsatell": 8074,
      "ĠCruise": 8075,
      "Ġmagazine": 8076,
      "ĠDefense": 8077,
      "Ġconfirmed": 8078,
      "ĠQueen": 8079,
      "ĠCambridge": 8080,
      "Ġcircumst": 8081,
      "People": 8082,
      "Ġadvertis": 8083,
      "Ġvulnerability": 8084,
      "liament": 8085,
      "ĠWelsh": 8086,
      "ĠJewish": 8087,
      "Ġsculpture": 8088,
      "ĠExplore": 8089,
      "Ġequivalent": 8090,
      "Ġaccessible": 8091,
      "Ġincredible": 8092,
      "ĠVietnam": 8093,
      "ĠColombia": 8094,
      "ĠArizona": 8095,
      "ĠSydney": 8096,
      "ĠAlternatively": 8097,
      "Ġsettlement": 8098,
      "Ġretirement": 8099,
      "Paak": 8100,
      "Ġcuisine": 8101,
      "ĠLewis": 8102,
      "rambling": 8103,
      "Ġreparations": 8104,
      "ĠCatholic": 8105,
      "Ġpandemic": 8106,
      "Ġancest": 8107,
      "ĠShakespeare": 8108,
      "iterranean": 8109,
      "36": 8110,
      "41": 8111,
      "600": 8112,
      "Ad": 8113,
      "BO": 8114,
      "By": 8115,
      "CS": 8116,
      "Col": 8117,
      "First": 8118,
      "LTP": 8119,
      "ML": 8120,
      "Me": 8121,
      "Man": 8122,
      "NN": 8123,
      "SP": 8124,
      "SU": 8125,
      "Summ": 8126,
      "Soft": 8127,
      "Under": 8128,
      "aic": 8129,
      "ca": 8130,
      "cow": 8131,
      "een": 8132,
      "eep": 8133,
      "gue": 8134,
      "haps": 8135,
      "iast": 8136,
      "istered": 8137,
      "ji": 8138,
      "jo": 8139,
      "jud": 8140,
      "lad": 8141,
      "lif": 8142,
      "lled": 8143,
      "men": 8144,
      "mony": 8145,
      "nik": 8146,
      "oa": 8147,
      "oqu": 8148,
      "ples": 8149,
      "person": 8150,
      "range": 8151,
      "ters": 8152,
      "tains": 8153,
      "uum": 8154,
      "uits": 8155,
      "via": 8156,
      "won": 8157,
      "zh": 8158,
      "ĊĠ": 8159,
      "Ġx": 8160,
      "ĠÐ": 8161,
      "Ġax": 8162,
      "Ġaqu": 8163,
      "Ġtornado": 8164,
      "reed": 8165,
      "rell": 8166,
      "stock": 8167,
      "oni": 8168,
      "heel": 8169,
      "hetic": 8170,
      "eration": 8171,
      "Ġpine": 8172,
      "Ġsy": 8173,
      "Ġsight": 8174,
      "ening": 8175,
      "enag": 8176,
      "Ġori": 8177,
      "Ġoven": 8178,
      "Ġcart": 8179,
      "Ġcinem": 8180,
      "organ": 8181,
      "endment": 8182,
      "Ġfill": 8183,
      "Ġfellow": 8184,
      "Ġfusion": 8185,
      "Ġfilled": 8186,
      "Ġwet": 8187,
      "Ġware": 8188,
      "Ġwaste": 8189,
      "olt": 8190,
      "Ġmm": 8191,
      "Ġmur": 8192,
      "Ġmeters": 8193,
      "Ġmaster": 8194,
      "Ġmassive": 8195,
      "Ġmunicip": 8196,
      "Ġreve": 8197,
      "Ġrebu": 8198,
      "Ġtot": 8199,
      "Ġblan": 8200,
      "Ġinequ": 8201,
      "ectivity": 8202,
      "Ġdash": 8203,
      "iced": 8204,
      "iches": 8205,
      "ĠAsh": 8206,
      "Ġgri": 8207,
      "Ġgiant": 8208,
      "uther": 8209,
      "Ġham": 8210,
      "Ġhack": 8211,
      "Ġhockey": 8212,
      "ĠSy": 8213,
      "ĠSonic": 8214,
      "etery": 8215,
      "evada": 8216,
      "cht": 8217,
      "ĠTow": 8218,
      "ĠTower": 8219,
      "ĠTimes": 8220,
      "ĠTreat": 8221,
      "ĠTampa": 8222,
      "Ġlamp": 8223,
      "Ġlens": 8224,
      "ĠCasc": 8225,
      "ĠCancun": 8226,
      "Ġprepar": 8227,
      "Ġpretrained": 8228,
      "Ġthir": 8229,
      "adi": 8230,
      "ĠXbox": 8231,
      "ĠIv": 8232,
      "ĠIsh": 8233,
      "ĠIron": 8234,
      "Ġstations": 8235,
      "urich": 8236,
      "urday": 8237,
      "ĠMission": 8238,
      "ĠPC": 8239,
      "ĠPass": 8240,
      "ateful": 8241,
      "Ġvo": 8242,
      "Ġvision": 8243,
      "ĠFox": 8244,
      "ĠBurn": 8245,
      "ĠBah": 8246,
      "ĠBible": 8247,
      "ĠBaby": 8248,
      "ĠBasketball": 8249,
      "Ġhep": 8250,
      "Ġheating": 8251,
      "ocr": 8252,
      "ocation": 8253,
      "ĠHom": 8254,
      "ĠHand": 8255,
      "ĠHill": 8256,
      "ĠHerm": 8257,
      "ĠHale": 8258,
      "otte": 8259,
      "Ġyes": 8260,
      "ĠRacing": 8261,
      "ĠGi": 8262,
      "ĠGor": 8263,
      "ĠGord": 8264,
      "ĠGary": 8265,
      "ĠGra": 8266,
      "ĠGene": 8267,
      "ĠWales": 8268,
      "Ġalone": 8269,
      "andom": 8270,
      "ĠLo": 8271,
      "ĠLim": 8272,
      "ĠLie": 8273,
      "ĠLike": 8274,
      "Ġracket": 8275,
      "ĠDer": 8276,
      "ĠEP": 8277,
      "ĠEven": 8278,
      "ĠNation": 8279,
      "igers": 8280,
      "Ġ1956": 8281,
      "Ġmotion": 8282,
      "earless": 8283,
      "order": 8284,
      "emetery": 8285,
      "uclear": 8286,
      "ĠOx": 8287,
      "ĠJac": 8288,
      "ĠVen": 8289,
      "ivered": 8290,
      "aghet": 8291,
      "ticip": 8292,
      "berries": 8293,
      "Ġkg": 8294,
      "Ġkar": 8295,
      "Ġkill": 8296,
      "Ġkern": 8297,
      "Ġexpressed": 8298,
      "Ġoptical": 8299,
      "Ġscen": 8300,
      "Ġscuba": 8301,
      "Ġshade": 8302,
      "Ġships": 8303,
      "Ġsharks": 8304,
      "ĠStorm": 8305,
      "aki": 8306,
      "iper": 8307,
      "indler": 8308,
      "ĠChild": 8309,
      "ĠChannel": 8310,
      "avers": 8311,
      "Ġcounts": 8312,
      "rical": 8313,
      "ĠUnix": 8314,
      "ĠUniverse": 8315,
      "Ġabund": 8316,
      "Ġunable": 8317,
      "Ġunsc": 8318,
      "Ġjazz": 8319,
      "Ġjunior": 8320,
      "Ġtelesc": 8321,
      "Ġgrade": 8322,
      "Ġknit": 8323,
      "former": 8324,
      "Ġsimultane": 8325,
      "Ġoverl": 8326,
      "Ġoverfit": 8327,
      "Ġroot": 8328,
      "Ġroyal": 8329,
      "Ġ1812": 8330,
      "Ġemb": 8331,
      "Ġemail": 8332,
      "Ġneut": 8333,
      "190": 8334,
      "Ġdiss": 8335,
      "Ġdispl": 8336,
      "Ġformulated": 8337,
      "Ġformula": 8338,
      "Ġregistered": 8339,
      "perfect": 8340,
      "Ġcolour": 8341,
      "ĠYog": 8342,
      "netic": 8343,
      "Ġfeeding": 8344,
      "Ġlanes": 8345,
      "gradu": 8346,
      "ĠAlabama": 8347,
      "Ġtherefore": 8348,
      "Ġattach": 8349,
      "Ġsubsid": 8350,
      "rowning": 8351,
      "Ġimprison": 8352,
      "Ġdistinction": 8353,
      "Ġpolice": 8354,
      "Ġhighlight": 8355,
      "Ġtranslation": 8356,
      "Ġmaintenance": 8357,
      "Ġprocessor": 8358,
      "ĠGrade": 8359,
      "ĠGrammy": 8360,
      "Ġstatement": 8361,
      "Ġcrew": 8362,
      "Ġwars": 8363,
      "Ġinterpret": 8364,
      "Ġpromote": 8365,
      "Ġmonitor": 8366,
      "ĠIndians": 8367,
      "aza": 8368,
      "However": 8369,
      "ronics": 8370,
      "ĠBefore": 8371,
      "ĠBeane": 8372,
      "Ġmeditation": 8373,
      "Ġadvance": 8374,
      "Ġdried": 8375,
      "Ġdowntown": 8376,
      "ĠJohnstone": 8377,
      "ĠRoberts": 8378,
      "Ġeveryday": 8379,
      "Ġprofit": 8380,
      "Ġprofessor": 8381,
      "Ġbiking": 8382,
      "ĠClinton": 8383,
      "Ġbusinessman": 8384,
      "Ġgovernance": 8385,
      "Ġgovernments": 8386,
      "Ġparticles": 8387,
      "ĠAthen": 8388,
      "Ġairline": 8389,
      "ĠAfghan": 8390,
      "Ġgluten": 8391,
      "ĠHarvey": 8392,
      "Ġactress": 8393,
      "Ġentry": 8394,
      "Ġshortly": 8395,
      "Ġdepth": 8396,
      "Ġshowing": 8397,
      "Ġposs": 8398,
      "Ġlowest": 8399,
      "approx": 8400,
      "Ġgenres": 8401,
      "Ġcrimin": 8402,
      "2017": 8403,
      "Ġrealized": 8404,
      "ĠCentres": 8405,
      "ĠFrancis": 8406,
      "ĠBoeing": 8407,
      "Ġqualified": 8408,
      "Ġpresentation": 8409,
      "ĠEdm": 8410,
      "ĠComputer": 8411,
      "ĠMuslim": 8412,
      "ĠâĢĶ": 8413,
      "Ġdelivered": 8414,
      "Ġlosses": 8415,
      "Ġemployee": 8416,
      "Star": 8417,
      "Ġflower": 8418,
      "Ġhistorians": 8419,
      "ĠPeak": 8420,
      "Ġdefeating": 8421,
      "Ġarguments": 8422,
      "Ġproducer": 8423,
      "1994": 8424,
      "ĠMoore": 8425,
      "Ġstronger": 8426,
      "Ġforest": 8427,
      "ĠSecret": 8428,
      "Ġdetermining": 8429,
      "Ġcollapse": 8430,
      "Ġscientist": 8431,
      "Ġportfolio": 8432,
      "Ġmixed": 8433,
      "Ġ1929": 8434,
      "Ġ1909": 8435,
      "Ġpainting": 8436,
      "ĠBarry": 8437,
      "fielder": 8438,
      "ĠSmith": 8439,
      "Ġlayers": 8440,
      "Ġadvantages": 8441,
      "Ġkinds": 8442,
      "Ġattempted": 8443,
      "Ġemergent": 8444,
      "Ġgradually": 8445,
      "Ġofficials": 8446,
      "Ġresidence": 8447,
      "Ġdebate": 8448,
      "ĠMidnight": 8449,
      "Ġprepare": 8450,
      "okemon": 8451,
      "Ġvolume": 8452,
      "writing": 8453,
      "onnie": 8454,
      "Ġexercises": 8455,
      "ĠMercedes": 8456,
      "ĠMediterranean": 8457,
      "Ġwatching": 8458,
      "Ġdrople": 8459,
      "ĠOlson": 8460,
      "Ġintegration": 8461,
      "ĠSwedish": 8462,
      "ĠSaturday": 8463,
      "ĠJustice": 8464,
      "Ġcontributing": 8465,
      "Ġabsor": 8466,
      "Ġcloser": 8467,
      "Ġimmediate": 8468,
      "Spanish": 8469,
      "Ġnutri": 8470,
      "Ġsurrounding": 8471,
      "Ġsurrounded": 8472,
      "Ġseventh": 8473,
      "ĠMagic": 8474,
      "ĠHotel": 8475,
      "giate": 8476,
      "continent": 8477,
      "Ġgravity": 8478,
      "Ġpsychological": 8479,
      "ĠBookCor": 8480,
      "ĠVegas": 8481,
      "Ġaimed": 8482,
      "Ġrapidly": 8483,
      "founded": 8484,
      "ythm": 8485,
      "ĠControl": 8486,
      "Ġcorrectly": 8487,
      "Ġastronom": 8488,
      "Ġdependent": 8489,
      "Ġmaximum": 8490,
      "ĠSurrey": 8491,
      "Ġprogress": 8492,
      "ĠBaltimore": 8493,
      "ĠKubernetes": 8494,
      "ĠMurphy": 8495,
      "Ġrailway": 8496,
      "ĠNFTs": 8497,
      "ĠGeorgia": 8498,
      "Ġdrugs": 8499,
      "Ġholiday": 8500,
      "Ġopinion": 8501,
      "Ġreduces": 8502,
      "Ġcorruption": 8503,
      "idelity": 8504,
      "ĠMasi": 8505,
      "ĠNetwork": 8506,
      "Ġshifted": 8507,
      "ĠStanley": 8508,
      "Japanese": 8509,
      "xiety": 8510,
      "âĪĴ": 8511,
      "Ġthermal": 8512,
      "Ġflexibility": 8513,
      "Ġliberal": 8514,
      "âĢ¯Ġ": 8515,
      "Ġemergency": 8516,
      "lemson": 8517,
      "Ġalpac": 8518,
      "Ġdisruptive": 8519,
      "Timberlake": 8520,
      "ĠSeparate": 8521,
      "ĠTunis": 8522,
      "Ġcomparison": 8523,
      "Ġlifetime": 8524,
      "ĠVictoria": 8525,
      "ĠUkraine": 8526,
      "friend": 8527,
      "Ġnewspaper": 8528,
      "ĠKolkata": 8529,
      "Ġmarriage": 8530,
      "aghetti": 8531,
      "Ġunscrambling": 8532,
      "ĠAfghanistan": 8533,
      "ĠBookCorpus": 8534,
      "\"),": 8535,
      ".âĢĿ": 8536,
      "48": 8537,
      "49": 8538,
      "53": 8539,
      "Back": 8540,
      "Cal": 8541,
      "Fine": 8542,
      "French": 8543,
      "Gr": 8544,
      "Hub": 8545,
      "IA": 8546,
      "Let": 8547,
      "MA": 8548,
      "Modern": 8549,
      "Not": 8550,
      "PU": 8551,
      "Pl": 8552,
      "Pr": 8553,
      "Per": 8554,
      "Power": 8555,
      "Rev": 8556,
      "Sent": 8557,
      "Sup": 8558,
      "South": 8559,
      "TA": 8560,
      "VD": 8561,
      "VM": 8562,
      "WD": 8563,
      "YS": 8564,
      "airman": 8565,
      "cup": 8566,
      "cost": 8567,
      "ds": 8568,
      "dy": 8569,
      "dis": 8570,
      "eans": 8571,
      "hog": 8572,
      "high": 8573,
      "joug": 8574,
      "kin": 8575,
      "kaline": 8576,
      "law": 8577,
      "laim": 8578,
      "medi": 8579,
      "modern": 8580,
      "marks": 8581,
      "noon": 8582,
      "pti": 8583,
      "pur": 8584,
      "pool": 8585,
      "pected": 8586,
      "parent": 8587,
      "prompt": 8588,
      "tled": 8589,
      "vals": 8590,
      "wo": 8591,
      "Ãº": 8592,
      "Äģ": 8593,
      "Éĳ": 8594,
      "Ð°": 8595,
      "Ġ56": 8596,
      "Ġau": 8597,
      "Ġaver": 8598,
      "Ġtoler": 8599,
      "Ġtallest": 8600,
      "stop": 8601,
      "onia": 8602,
      "onso": 8603,
      "onium": 8604,
      "erals": 8605,
      "arine": 8606,
      "ingly": 8607,
      "Ġpas": 8608,
      "Ġpap": 8609,
      "Ġpitch": 8610,
      "Ġpearl": 8611,
      "anne": 8612,
      "alter": 8613,
      "Ġcoc": 8614,
      "Ġcash": 8615,
      "Ġcrop": 8616,
      "Ġcensus": 8617,
      "Ġcabin": 8618,
      "aser": 8619,
      "ashed": 8620,
      "Ġfib": 8621,
      "Ġfacing": 8622,
      "olia": 8623,
      "ollar": 8624,
      "Ġmort": 8625,
      "Ġmild": 8626,
      "Ġmaj": 8627,
      "Ġtoys": 8628,
      "Ġben": 8629,
      "Ġbes": 8630,
      "Ġbought": 8631,
      "Ġbub": 8632,
      "Ġblow": 8633,
      "Ġburn": 8634,
      "Ġbrick": 8635,
      "itly": 8636,
      "itational": 8637,
      "itHub": 8638,
      "omas": 8639,
      "Ġinternal": 8640,
      "Ġinsight": 8641,
      "Ġinnings": 8642,
      "econom": 8643,
      "ulations": 8644,
      "Ġease": 8645,
      "Ġdess": 8646,
      "Ġdimen": 8647,
      "Ġdrawn": 8648,
      "usk": 8649,
      "ĠAxis": 8650,
      "Ġgrid": 8651,
      "Ġisn": 8652,
      "lans": 8653,
      "language": 8654,
      "ĠSu": 8655,
      "ĠSet": 8656,
      "ĠSum": 8657,
      "ĠSÃ£o": 8658,
      "ils": 8659,
      "Ġproof": 8660,
      "ethe": 8661,
      "ĠTric": 8662,
      "ĠTerm": 8663,
      "ĠTuring": 8664,
      "ĠTennis": 8665,
      "Ġlux": 8666,
      "ĠClash": 8667,
      "ĠCris": 8668,
      "ĠCross": 8669,
      "Ġthin": 8670,
      "Ġthri": 8671,
      "aust": 8672,
      "thony": 8673,
      "adm": 8674,
      "ads": 8675,
      "Ġcapability": 8676,
      "Ġprecision": 8677,
      "owa": 8678,
      "Ġstake": 8679,
      "Ġstored": 8680,
      "ĠMin": 8681,
      "ĠMen": 8682,
      "ĠMike": 8683,
      "ĠPic": 8684,
      "Ġassistant": 8685,
      "Ġvers": 8686,
      "ĠFamic": 8687,
      "ĠBa": 8688,
      "ĠBi": 8689,
      "ĠBor": 8690,
      "ĠBoy": 8691,
      "ĠBlanc": 8692,
      "Ġhear": 8693,
      "oda": 8694,
      "ĠHi": 8695,
      "ĠHon": 8696,
      "ĠHel": 8697,
      "ĠRun": 8698,
      "ĠRoose": 8699,
      "ĠGT": 8700,
      "ĠGirl": 8701,
      "ĠWell": 8702,
      "ĠWoman": 8703,
      "Ġalgorithm": 8704,
      "andon": 8705,
      "ĠLy": 8706,
      "ĠLud": 8707,
      "ĠLug": 8708,
      "ĠLiver": 8709,
      "Ġraw": 8710,
      "Ġrural": 8711,
      "ĠDor": 8712,
      "ĠDom": 8713,
      "ĠDun": 8714,
      "Ġcomic": 8715,
      "ĠEight": 8716,
      "ĠNik": 8717,
      "ĠNative": 8718,
      "ĠNadal": 8719,
      "ĠNetflix": 8720,
      "ĠNevada": 8721,
      "ourney": 8722,
      "ordin": 8723,
      "emporary": 8724,
      "abe": 8725,
      "about": 8726,
      "ucing": 8727,
      "ardigr": 8728,
      "ĠOb": 8729,
      "ĠOak": 8730,
      "ĠOjoug": 8731,
      "ĠJets": 8732,
      "Ġchap": 8733,
      "osm": 8734,
      "osen": 8735,
      "ossil": 8736,
      "âĢ¦": 8737,
      "âĢľ": 8738,
      "Ġspark": 8739,
      "Ġtrains": 8740,
      "asted": 8741,
      "Ġket": 8742,
      "Ġcompos": 8743,
      "Ġscript": 8744,
      "Ġshark": 8745,
      "Ġshift": 8746,
      "Ġshapes": 8747,
      "Ġshoes": 8748,
      "ĠKim": 8749,
      "ĠKat": 8750,
      "ĠKind": 8751,
      "ĠKnight": 8752,
      "ĠKabaddi": 8753,
      "aret": 8754,
      "ĠIns": 8755,
      "Ġincident": 8756,
      "Ġdefend": 8757,
      "ĠChall": 8758,
      "ĠChick": 8759,
      "lower": 8760,
      "aven": 8761,
      "erved": 8762,
      "Ġcounty": 8763,
      "Ġseed": 8764,
      "Ġseats": 8765,
      "Ġmeal": 8766,
      "Ġpermit": 8767,
      "Instruction": 8768,
      "ooled": 8769,
      "velt": 8770,
      "Ġteenag": 8771,
      "Ġtwelve": 8772,
      "Ġrob": 8773,
      "Ġrod": 8774,
      "lander": 8775,
      "Ġ87": 8776,
      "awk": 8777,
      "guins": 8778,
      "axy": 8779,
      "Ġagreed": 8780,
      "Ġsole": 8781,
      "ĠIndones": 8782,
      "Ġemperor": 8783,
      "Ġneither": 8784,
      "gins": 8785,
      "ailing": 8786,
      "Ġcoal": 8787,
      "Ġstructural": 8788,
      "Ġ400": 8789,
      "ĠArthur": 8790,
      "ĠArctic": 8791,
      "Ġnoise": 8792,
      "Ġriding": 8793,
      "Ġrivals": 8794,
      "Ġvalued": 8795,
      "Ġcenters": 8796,
      "Ġprovince": 8797,
      "Ġprovinces": 8798,
      "ĠAncient": 8799,
      "ĠAnaplas": 8800,
      "Ġflo": 8801,
      "Ġrelativity": 8802,
      "Ġsubur": 8803,
      "ĠSpell": 8804,
      "ĠShort": 8805,
      "Ġnews": 8806,
      "Ġnewly": 8807,
      "Ġimplant": 8808,
      "athering": 8809,
      "Ġpoly": 8810,
      "Ġinstruct": 8811,
      "ika": 8812,
      "Ġworkers": 8813,
      "iolet": 8814,
      "Ġcalm": 8815,
      "Ġarchitectural": 8816,
      "Ġanything": 8817,
      "Ġanywhere": 8818,
      "Ġinvited": 8819,
      "Ġefforts": 8820,
      "Ġkeys": 8821,
      "Ġcreative": 8822,
      "Ġeco": 8823,
      "Ġpersonally": 8824,
      "achel": 8825,
      "ĠUSB": 8826,
      "Ġchest": 8827,
      "Ġcheaper": 8828,
      "ĠYour": 8829,
      "Ġfrag": 8830,
      "incial": 8831,
      "Ġvisible": 8832,
      "ommod": 8833,
      "Ġreduced": 8834,
      "Ġ1971": 8835,
      "ridges": 8836,
      "Ġmedieval": 8837,
      "Ġadvis": 8838,
      "Ġdirections": 8839,
      "Ġmarketed": 8840,
      "Ġextreme": 8841,
      "Ġorganism": 8842,
      "Ġpopulated": 8843,
      "herent": 8844,
      "Ġcontinental": 8845,
      "Ġpublication": 8846,
      "Ġ1942": 8847,
      "essional": 8848,
      "Ġpriv": 8849,
      "Ġconscious": 8850,
      "Ġedge": 8851,
      "Ġairplan": 8852,
      "ĠGreatest": 8853,
      "Ġannually": 8854,
      "Ġannotation": 8855,
      "Ġdiscont": 8856,
      "Ġdiscussion": 8857,
      "Ġentr": 8858,
      "Ġcommunities": 8859,
      "Think": 8860,
      "ĠPrice": 8861,
      "Ġtrading": 8862,
      "Ġpolitics": 8863,
      "Ġ179": 8864,
      "ĠDeep": 8865,
      "ĠDeath": 8866,
      "ourses": 8867,
      "Robert": 8868,
      "Ġcompetitors": 8869,
      "Ġretail": 8870,
      "Ġ1935": 8871,
      "ĠFinals": 8872,
      "Ġgenomics": 8873,
      "annot": 8874,
      "Ġverb": 8875,
      "2010": 8876,
      "2018": 8877,
      "Ġseeing": 8878,
      "Ġmembership": 8879,
      "ĠPrior": 8880,
      "ĠSupreme": 8881,
      "Ġprompted": 8882,
      "ĠManit": 8883,
      "Ġsignificance": 8884,
      "ategorize": 8885,
      "Ġachieving": 8886,
      "Ġspecialty": 8887,
      "Ġkeeping": 8888,
      "Ġappears": 8889,
      "Ġradiation": 8890,
      "Ġprotected": 8891,
      "ĠCommit": 8892,
      "ĠMcD": 8893,
      "Ġpredomin": 8894,
      "Ġdistributions": 8895,
      "Ġerup": 8896,
      "ographical": 8897,
      "Ġdeaths": 8898,
      "green": 8899,
      "Ġhistoric": 8900,
      "Ġaudioph": 8901,
      "mitoylation": 8902,
      "Ġmechanism": 8903,
      "Ġimpacted": 8904,
      "Ġgolfers": 8905,
      "1999": 8906,
      "Ġartistic": 8907,
      "Ġloans": 8908,
      "ĠJeep": 8909,
      "ĠTwitch": 8910,
      "Ġreturns": 8911,
      "Ġuranium": 8912,
      "Ġsuccessfully": 8913,
      "Ġmasses": 8914,
      "Ġrankings": 8915,
      "Ġoils": 8916,
      "ĠSecurity": 8917,
      "ĠMorris": 8918,
      "ĠWilliams": 8919,
      "Ġmanaged": 8920,
      "chestr": 8921,
      "Ġreplacing": 8922,
      "Ġanswering": 8923,
      "Ġranks": 8924,
      "Ġ1903": 8925,
      "Ġidentity": 8926,
      "holm": 8927,
      "ĠSmall": 8928,
      "ĠMarketing": 8929,
      "tism": 8930,
      "Ġcircles": 8931,
      "Ġpresidents": 8932,
      "Ġstreams": 8933,
      "ĠMountains": 8934,
      "ĠDelta": 8935,
      "Ġtowns": 8936,
      "Éªn": 8937,
      "Ġcopy": 8938,
      "Ġresidential": 8939,
      "ĠMalcolm": 8940,
      "Ġessentially": 8941,
      "Ġregularly": 8942,
      "Ġparticipate": 8943,
      "Ġhorizon": 8944,
      "Ġlabel": 8945,
      "sibility": 8946,
      "Ġcorpora": 8947,
      "Ġbullets": 8948,
      "Ġstriking": 8949,
      "Ġfacilit": 8950,
      "Ġbonds": 8951,
      "Ġprincipal": 8952,
      "Ġprinciple": 8953,
      "restling": 8954,
      "Ġturb": 8955,
      "ĠDonkey": 8956,
      "ĠDuty": 8957,
      "Ġrepeated": 8958,
      "Ġcamera": 8959,
      "Ġfulf": 8960,
      "Ġabsol": 8961,
      "Ġmeeting": 8962,
      "Ġtrillions": 8963,
      "Ġcriticized": 8964,
      "ÃŃa": 8965,
      "Ġconflicts": 8966,
      "ĠIntelligence": 8967,
      "Ġimplemented": 8968,
      "burg": 8969,
      "holders": 8970,
      "Ã³w": 8971,
      "Ġchallenging": 8972,
      "Ġarms": 8973,
      "Ġgravitational": 8974,
      "ĠHindi": 8975,
      "Ġopponents": 8976,
      "Ġlistening": 8977,
      "Ġpursue": 8978,
      "garia": 8979,
      "Ġconversion": 8980,
      "ĠRowling": 8981,
      "ĠJunior": 8982,
      "Ġsettled": 8983,
      "Ġexactly": 8984,
      "ĠBulgaria": 8985,
      "ĠHuman": 8986,
      "ĠHumans": 8987,
      "Ġdismissed": 8988,
      "Ġtorto": 8989,
      "ĠSquare": 8990,
      "ĠNorman": 8991,
      "Ġdiscipline": 8992,
      "Ġphysician": 8993,
      "ĠGovernment": 8994,
      "Ġagreement": 8995,
      "Ġtourists": 8996,
      "Ġticket": 8997,
      "generated": 8998,
      "uguese": 8999,
      "ĠBobby": 9000,
      "ĠJuliet": 9001,
      "Ġsubstanti": 9002,
      "Ġawareness": 9003,
      "Ġstrategic": 9004,
      "Ġimplic": 9005,
      "Ġjuice": 9006,
      "Ġassassination": 9007,
      "Ġthousands": 9008,
      "Ġnickname": 9009,
      "Ġroughly": 9010,
      "Ġscholars": 9011,
      "Ġprocedure": 9012,
      "ĠFantasy": 9013,
      "ĠGallo": 9014,
      "ĠUCLA": 9015,
      "Ġshooting": 9016,
      "Ġreinforcement": 9017,
      "Ġinaugural": 9018,
      "Ġoutcomes": 9019,
      "Ġmythology": 9020,
      "Ġsucceeded": 9021,
      "Ġoccupied": 9022,
      "ĠSoftware": 9023,
      "Ġspiritual": 9024,
      "etroit": 9025,
      "Ġvessels": 9026,
      "ĠBilbo": 9027,
      "ĠHungary": 9028,
      "Ġevolved": 9029,
      "Ġtubes": 9030,
      "Ġvanilla": 9031,
      "keeper": 9032,
      "ĠColumbia": 9033,
      "chestra": 9034,
      "hammad": 9035,
      "iwi": 9036,
      "olphin": 9037,
      "Ġresistance": 9038,
      "ĠVarious": 9039,
      "Ġcasual": 9040,
      "Ġborrow": 9041,
      "ĠTerritory": 9042,
      "ĠExplorer": 9043,
      "Summarize": 9044,
      "ĠTreaty": 9045,
      "ĠOxford": 9046,
      "ĠSecretary": 9047,
      "Review": 9048,
      "Sentiment": 9049,
      "Ġmajors": 9050,
      "ĠFamicom": 9051,
      "ĠRoosevelt": 9052,
      "ĠOjougboh": 9053,
      "/;": 9054,
      "300": 9055,
      "75": 9056,
      "?\"": 9057,
      "August": 9058,
      "Bee": 9059,
      "Co": 9060,
      "Categorize": 9061,
      "DB": 9062,
      "EE": 9063,
      "Em": 9064,
      "EFA": 9065,
      "Early": 9066,
      "FO": 9067,
      "Fr": 9068,
      "Files": 9069,
      "Har": 9070,
      "Harry": 9071,
      "Ital": 9072,
      "Just": 9073,
      "ND": 9074,
      "Out": 9075,
      "PR": 9076,
      "Par": 9077,
      "Qu": 9078,
      "So": 9079,
      "Sec": 9080,
      "Tom": 9081,
      "^{": 9082,
      "ault": 9083,
      "bes": 9084,
      "bread": 9085,
      "bucks": 9086,
      "cut": 9087,
      "cel": 9088,
      "cricket": 9089,
      "coming": 9090,
      "dÊĴ": 9091,
      "fight": 9092,
      "free": 9093,
      "fax": 9094,
      "feller": 9095,
      "gl": 9096,
      "got": 9097,
      "hw": 9098,
      "how": 9099,
      "harm": 9100,
      "hroom": 9101,
      "ige": 9102,
      "lv": 9103,
      "lig": 9104,
      "lative": 9105,
      "locked": 9106,
      "mem": 9107,
      "mile": 9108,
      "numa": 9109,
      "och": 9110,
      "pow": 9111,
      "ptions": 9112,
      "run": 9113,
      "rates": 9114,
      "ract": 9115,
      "then": 9116,
      "ument": 9117,
      "vention": 9118,
      "with": 9119,
      "works": 9120,
      "xing": 9121,
      "ysi": 9122,
      "zo": 9123,
      "zz": 9124,
      "zing": 9125,
      "{\\": 9126,
      "Ġ_": 9127,
      "Ġ|": 9128,
      "Ġaer": 9129,
      "Ġaided": 9130,
      "Ġtape": 9131,
      "inburgh": 9132,
      "rets": 9133,
      "onaut": 9134,
      "arre": 9135,
      "aran": 9136,
      "tically": 9137,
      "Ġpul": 9138,
      "Ġpure": 9139,
      "Ġpool": 9140,
      "Ġpages": 9141,
      "Ġsession": 9142,
      "Ġsuit": 9143,
      "ano": 9144,
      "aling": 9145,
      "alak": 9146,
      "alore": 9147,
      "eno": 9148,
      "Ġoars": 9149,
      "Ġce": 9150,
      "Ġcow": 9151,
      "Ġcrow": 9152,
      "lets": 9153,
      "asan": 9154,
      "asant": 9155,
      "Ġwa": 9156,
      "Ġwing": 9157,
      "Ġwed": 9158,
      "Ġment": 9159,
      "Ġmigration": 9160,
      "Ġretain": 9161,
      "Ġreject": 9162,
      "Ġtoe": 9163,
      "Ġbare": 9164,
      "itcoin": 9165,
      "omy": 9166,
      "ometers": 9167,
      "Ġintern": 9168,
      "ulate": 9169,
      "Ġepic": 9170,
      "Ġeighth": 9171,
      "Ġdie": 9172,
      "Ġdress": 9173,
      "icking": 9174,
      "entral": 9175,
      "ĠAur": 9176,
      "ĠAff": 9177,
      "Ġhoney": 9178,
      "Ġhospital": 9179,
      "Ġanxiety": 9180,
      "ĠSr": 9181,
      "apping": 9182,
      "mento": 9183,
      "Ġprosp": 9184,
      "eta": 9185,
      "amas": 9186,
      "char": 9187,
      "ĠTown": 9188,
      "ĠCz": 9189,
      "ĠChen": 9190,
      "ĠClar": 9191,
      "ĠCleveland": 9192,
      "Ġthr": 9193,
      "Ġthrow": 9194,
      "eline": 9195,
      "ellect": 9196,
      "advant": 9197,
      "Ġgenerating": 9198,
      "Ġnur": 9199,
      "allas": 9200,
      "ulties": 9201,
      "Ġpreceding": 9202,
      "Ġonto": 9203,
      "Ġstroke": 9204,
      "urning": 9205,
      "ira": 9206,
      "irc": 9207,
      "ĠMr": 9208,
      "ĠMade": 9209,
      "ĠMaj": 9210,
      "ĠMumb": 9211,
      "ĠMinn": 9212,
[...]
