{
  "version": "1.0",
  "truncation": null,
  "padding": null,
  "added_tokens": [
    {
      "id": 0,
      "content": "<|pad|>",
      "single_word": false,
      "lstrip": false,
      "rstrip": false,
      "normalized": false,
      "special": true
    },
    {
      "id": 1,
      "content": "<|unk|>",
      "single_word": false,
      "lstrip": false,
      "rstrip": false,
      "normalized": false,
      "special": true
    },
    {
      "id": 2,
      "content": "<|bos|>",
      "single_word": false,
      "lstrip": false,
      "rstrip": false,
      "normalized": false,
      "special": true
    },
    {
      "id": 3,
      "content": "<|eos|>",
      "single_word": false,
      "lstrip": false,
      "rstrip": false,
      "normalized": false,
      "special": true
    },
    {
      "id": 4,
      "content": "<|im_start|>",
      "single_word": false,
      "lstrip": false,
      "rstrip": false,
      "normalized": false,
      "special": true
    },
    {
      "id": 5,
      "content": "<|im_end|>",
      "single_word": false,
      "lstrip": false,
      "rstrip": false,
      "normalized": false,
      "special": true
    },
    {
      "id": 6,
      "content": "<|thought|>",
      "single_word": false,
      "lstrip": false,
      "rstrip": false,
      "normalized": false,
      "special": true
    },
    {
      "id": 7,
      "content": "<|plan|>",
      "single_word": false,
      "lstrip": false,
      "rstrip": false,
      "normalized": false,
      "special": true
    },
    {
      "id": 8,
      "content": "<|tool_call|>",
      "single_word": false,
      "lstrip": false,
      "rstrip": false,
      "normalized": false,
      "special": true
    },
    {
      "id": 9,
      "content": "<|tool_result|>",
      "single_word": false,
      "lstrip": false,
      "rstrip": false,
      "normalized": false,
      "special": true
    },
    {
      "id": 10,
      "content": "<|system|>",
      "single_word": false,
      "lstrip": false,
      "rstrip": false,
      "normalized": false,
      "special": true
    },
    {
      "id": 11,
      "content": "<|user|>",
      "single_word": false,
      "lstrip": false,
      "rstrip": false,
      "normalized": false,
      "special": true
    },
    {
      "id": 12,
      "content": "<|assistant|>",
      "single_word": false,
      "lstrip": false,
      "rstrip": false,
      "normalized": false,
      "special": true
    }
  ],
  "normalizer": null,
  "pre_tokenizer": {
    "type": "ByteLevel",
    "add_prefix_space": false,
    "trim_offsets": true,
    "use_regex": true
  },
  "post_processor": null,
  "decoder": {
    "type": "ByteLevel",
    "add_prefix_space": true,
    "trim_offsets": true,
    "use_regex": true
  },
  "model": {
    "type": "BPE",
    "dropout": null,
    "unk_token": "<|unk|>",
    "continuing_subword_prefix": null,
    "end_of_word_suffix": null,
    "fuse_unk": false,
    "byte_fallback": false,
    "ignore_merges": false,
    "vocab": {
      "<|pad|>": 0,
      "<|unk|>": 1,
      "<|bos|>": 2,
      "<|eos|>": 3,
      "<|im_start|>": 4,
      "<|im_end|>": 5,
      "<|thought|>": 6,
      "<|plan|>": 7,
      "<|tool_call|>": 8,
      "<|tool_result|>": 9,
      "<|system|>": 10,
      "<|user|>": 11,
      "<|assistant|>": 12,
      "!": 13,
      "\"": 14,
      "#": 15,
      "$": 16,
      "%": 17,
      "&": 18,
      "'": 19,
      "(": 20,
      ")": 21,
      "*": 22,
      "+": 23,
      ",": 24,
      "-": 25,
      ".": 26,
      "/": 27,
      "0": 28,
      "1": 29,
      "2": 30,
      "3": 31,
      "4": 32,
      "5": 33,
      "6": 34,
      "7": 35,
      "8": 36,
      "9": 37,
      ":": 38,
      ";": 39,
      "<": 40,
      "=": 41,
      ">": 42,
      "?": 43,
      "@": 44,
      "A": 45,
      "B": 46,
      "C": 47,
      "D": 48,
      "E": 49,
      "F": 50,
      "G": 51,
      "H": 52,
      "I": 53,
      "J": 54,
      "K": 55,
      "L": 56,
      "M": 57,
      "N": 58,
      "O": 59,
      "P": 60,
      "Q": 61,
      "R": 62,
      "S": 63,
      "T": 64,
      "U": 65,
      "V": 66,
      "W": 67,
      "X": 68,
      "Y": 69,
      "Z": 70,
      "[": 71,
      "\\": 72,
      "]": 73,
      "^": 74,
      "_": 75,
      "`": 76,
      "a": 77,
      "b": 78,
      "c": 79,
      "d": 80,
      "e": 81,
      "f": 82,
      "g": 83,
      "h": 84,
      "i": 85,
      "j": 86,
      "k": 87,
      "l": 88,
      "m": 89,
      "n": 90,
      "o": 91,
      "p": 92,
      "q": 93,
      "r": 94,
      "s": 95,
      "t": 96,
      "u": 97,
      "v": 98,
      "w": 99,
      "x": 100,
      "y": 101,
      "z": 102,
      "{": 103,
      "|": 104,
      "}": 105,
      "~": 106,
      "¡": 107,
      "¢": 108,
      "£": 109,
      "¤": 110,
      "¥": 111,
      "¦": 112,
      "§": 113,
      "¨": 114,
      "©": 115,
      "ª": 116,
      "«": 117,
      "¬": 118,
      "®": 119,
      "¯": 120,
      "°": 121,
      "±": 122,
      "²": 123,
      "³": 124,
      "´": 125,
      "µ": 126,
      "¶": 127,
      "·": 128,
      "¸": 129,
      "¹": 130,
      "º": 131,
      "»": 132,
      "¼": 133,
      "½": 134,
      "¾": 135,
      "¿": 136,
      "À": 137,
      "Á": 138,
      "Â": 139,
      "Ã": 140,
      "Ä": 141,
      "Å": 142,
      "Æ": 143,
      "Ç": 144,
      "È": 145,
      "É": 146,
      "Ê": 147,
      "Ë": 148,
      "Ì": 149,
      "Í": 150,
      "Î": 151,
      "Ï": 152,
      "Ð": 153,
      "Ñ": 154,
      "Ò": 155,
      "Ó": 156,
      "Ô": 157,
      "Õ": 158,
      "Ö": 159,
      "×": 160,
      "Ø": 161,
      "Ù": 162,
      "Ú": 163,
      "Û": 164,
      "Ü": 165,
      "Ý": 166,
      "Þ": 167,
      "ß": 168,
      "à": 169,
      "á": 170,
      "â": 171,
      "ã": 172,
      "ä": 173,
      "å": 174,
      "æ": 175,
      "ç": 176,
      "è": 177,
      "é": 178,
      "ê": 179,
      "ë": 180,
      "ì": 181,
      "í": 182,
      "î": 183,
      "ï": 184,
      "ð": 185,
      "ñ": 186,
      "ò": 187,
      "ó": 188,
      "ô": 189,
      "õ": 190,
      "ö": 191,
      "÷": 192,
      "ø": 193,
      "ù": 194,
      "ú": 195,
      "û": 196,
      "ü": 197,
      "ý": 198,
      "þ": 199,
      "ÿ": 200,
      "Ā": 201,
      "ā": 202,
      "Ă": 203,
      "ă": 204,
      "Ą": 205,
      "ą": 206,
      "Ć": 207,
      "ć": 208,
      "Ĉ": 209,
      "ĉ": 210,
      "Ċ": 211,
      "ċ": 212,
      "Č": 213,
      "č": 214,
      "Ď": 215,
      "ď": 216,
      "Đ": 217,
      "đ": 218,
      "Ē": 219,
      "ē": 220,
      "Ĕ": 221,
      "ĕ": 222,
      "Ė": 223,
      "ė": 224,
      "Ę": 225,
      "ę": 226,
      "Ě": 227,
      "ě": 228,
      "Ĝ": 229,
      "ĝ": 230,
      "Ğ": 231,
      "ğ": 232,
      "Ġ": 233,
      "ġ": 234,
      "Ģ": 235,
      "ģ": 236,
      "Ĥ": 237,
      "ĥ": 238,
      "Ħ": 239,
      "ħ": 240,
      "Ĩ": 241,
      "ĩ": 242,
      "Ī": 243,
      "ī": 244,
      "Ĭ": 245,
      "ĭ": 246,
      "Į": 247,
      "į": 248,
      "İ": 249,
      "ı": 250,
      "Ĳ": 251,
      "ĳ": 252,
      "Ĵ": 253,
      "ĵ": 254,
      "Ķ": 255,
      "ķ": 256,
      "ĸ": 257,
      "Ĺ": 258,
      "ĺ": 259,
      "Ļ": 260,
      "ļ": 261,
      "Ľ": 262,
      "ľ": 263,
      "Ŀ": 264,
      "ŀ": 265,
      "Ł": 266,
      "ł": 267,
      "Ń": 268,
      "im": 269,
      "<|": 270,
      "|>": 271,
      "st": 272,
      "en": 273,
      "ar": 274,
      "re": 275,
      "at": 276,
      "on": 277,
      "an": 278,
      "er": 279,
      "end": 280,
      "al": 281,
      "star": 282,
      "start": 283,
      "to": 284,
      "in": 285,
      "ti": 286,
      "ou": 287,
      "ol": 288,
      "ing": 289,
      "th": 290,
      "Ġan": 291,
      "em": 292,
      "Ġs": 293,
      "ul": 294,
      "Ġre": 295,
      "tool": 296,
      "Ġp": 297,
      "ec": 298,
      "as": 299,
      "Ġand": 300,
      "Ġa": 301,
      "\":": 302,
      "cal": 303,
      "or": 304,
      "ed": 305,
      "ch": 306,
      "us": 307,
      "Ġ\"": 308,
      "tion": 309,
      "ion": 310,
      "Ġm": 311,
      "ht": 312,
      "bl": 313,
      "yst": 314,
      "ystem": 315,
      "lan": 316,
      "ation": 317,
      "Ġo": 318,
      "{\"": 319,
      "se": 320,
      "res": 321,
      "Ġar": 322,
      "ult": 323,
      "eren": 324,
      "Ġac": 325,
      "ex": 326,
      "Ġc": 327,
      "Ġf": 328,
      "ev": 329,
      "om": 330,
      "ut": 331,
      "stat": 332,
      "status": 333,
      "he": 334,
      "Ġex": 335,
      "ent": 336,
      "ment": 337,
      "tr": 338,
      "ĠA": 339,
      "iev": 340,
      "triev": 341,
      "ap": 342,
      "au": 343,
      "Ġ2": 344,
      "Ġtool": 345,
      "Ġof": 346,
      "si": 347,
      "Ġ'": 348,
      "eration": 349,
      "Ġretriev": 350,
      "oun": 351,
      "il": 352,
      "ter": 353,
      "Ġto": 354,
      "thou": 355,
      "ght": 356,
      "ution": 357,
      "ecution": 358,
      "Ġexecution": 359,
      "thought": 360,
      "({\"": 361,
      "abl": 362,
      "})": 363,
      "Ġg": 364,
      "ant": 365,
      "ery": 366,
      "call": 367,
      "result": 368,
      "dat": 369,
      "tim": 370,
      "rec": 371,
      "tor": 372,
      "Ġsystem": 373,
      "Ġreas": 374,
      "ector": 375,
      "able": 376,
      "Ġreason": 377,
      "Plan": 378,
      "Xeren": 379,
      "You": 380,
      "ep": 381,
      "gment": 382,
      "ise": 383,
      "ning": 384,
      "obl": 385,
      "qu": 386,
      "robl": 387,
      "system": 388,
      "ving": 389,
      "ĠXeren": 390,
      "stant": 391,
      "step": 392,
      "eneration": 393,
      "onom": 394,
      "ous": 395,
      "olving": 396,
      "Ġsolving": 397,
      "ulti": 398,
      "Ġplan": 399,
      "Ġprec": 400,
      "Ġprobl": 401,
      "assi": 402,
      "Ġaut": 403,
      "user": 404,
      "Ġmulti": 405,
      "Ġare": 406,
      "Ġaction": 407,
      "Ġcap": 408,
      "ĠAI": 409,
      "augment": 410,
      "Ġretrieval": 411,
      "Ġgeneration": 412,
      "Ġreasoning": 413,
      "query": 414,
      "onomous": 415,
      "Ġplanning": 416,
      "Ġprecise": 417,
      "Ġproblem": 418,
      "assistant": 419,
      "Ġautonomous": 420,
      "Ġcapable": 421,
      "augmented": 422,
      "\",": 423,
      "tp": 424,
      "Ġ3": 425,
      "alth": 426,
      "http": 427,
      "health": 428,
      "ith": 429,
      "Ġb": 430,
      "ound": 431,
      "01": 432,
      "02": 433,
      "64": 434,
      "ve": 435,
      "Ġ1": 436,
      "tive": 437,
      "ilter": 438,
      "et": 439,
      "ĠS": 440,
      "vector": 441,
      "data": 442,
      "time": 443,
      "cul": 444,
      "es": 445,
      "lo": 446,
      "Ġw": 447,
      "Ġstatus": 448,
      "Ġi": 449,
      "atch": 450,
      "Ġsu": 451,
      "calcul": 452,
      "Ġfor": 453,
      "//": 454,
      "://": 455,
      "ic": 456,
      "Ġ*": 457,
      "ĠV": 458,
      "arch": 459,
      "the": 460,
      "https": 461,
      "56": 462,
      "cor": 463,
      "ds": 464,
      "me": 465,
      "mm": 466,
      "xeren": 467,
      "Ġ+": 468,
      "Ġhealth": 469,
      "Ġ64": 470,
      "ary": 471,
      "Ġres": 472,
      "Ġrecor": 473,
      "Ġactive": 474,
      "Ġ256": 475,
      "local": 476,
      "Ġis": 477,
      "Ġsumm": 478,
      "Ġrecords": 479,
      "ator": 480,
      "it": 481,
      "sion": 482,
      "ure": 483,
      "Ġop": 484,
      "out": 485,
      "Ġ{\"": 486,
      "fy": 487,
      "ĠC": 488,
      "timeout": 489,
      "ify": 490,
      "pres": 491,
      "ture": 492,
      "Ġquery": 493,
      "erify": 494,
      "ute": 495,
      "calculator": 496,
      "pression": 497,
      "Found": 498,
      "ding": 499,
      "Ġthe": 500,
      "alu": 501,
      "Ġmatch": 502,
      "Ġwith": 503,
      "Ġmatching": 504,
      "00": 505,
      "Lo": 506,
      "RA": 507,
      "bas": 508,
      "earch": 509,
      "iz": 510,
      "vic": 511,
      "Ġ>": 512,
      "Ġv": 513,
      "Ġdata": 514,
      "reat": 515,
      "ervic": 516,
      "tic": 517,
      "Ġarith": 518,
      "Ġbound": 519,
      "024": 520,
      "026": 521,
      "Ġ15": 522,
      "Ġ1024": 523,
      "metic": 524,
      "Ġresult": 525,
      "Ġsummary": 526,
      "dings": 527,
      "base": 528,
      "Ġdatabase": 529,
      "reated": 530,
      "ervice": 531,
      "Ġarithmetic": 532,
      "ĠF": 533,
      "ĠR": 534,
      "Ġd": 535,
      "ĠLo": 536,
      "oc": 537,
      "Ġdoc": 538,
      "ac": 539,
      "Ġst": 540,
      "un": 541,
      "ument": 542,
      "yn": 543,
      "emor": 544,
      "omp": 545,
      "Ġdocument": 546,
      "emory": 547,
      "adata": 548,
      "filter": 549,
      "Ġvector": 550,
      "Ġmemory": 551,
      "etadata": 552,
      "ity": 553,
      "co": 554,
      "tt": 555,
      "uc": 556,
      "ur": 557,
      "Ġ0": 558,
      "ate": 559,
      "Ġsco": 560,
      "chit": 561,
      "Ġarchit": 562,
      "Ġfilter": 563,
      "Ġarchitec": 564,
      "\"}": 565,
      "up": 566,
      "}})": 567,
      "Ġin": 568,
      "Ġch": 569,
      "Ġtimeout": 570,
      "Ġmetadata": 571,
      "api": 572,
      "Ġ{\"$": 573,
      "ompute": 574,
      "Ġdocuments": 575,
      "Ġarchitecture": 576,
      "\"}}})": 577,
      "\"})": 578,
      "85": 579,
      "Att": 580,
      "Filter": 581,
      "Match": 582,
      "PI": 583,
      "ach": 584,
      "bed": 585,
      "hec": 586,
      "ks": 587,
      "oin": 588,
      "poin": 589,
      "ĠG": 590,
      "ĠH": 591,
      "Ġon": 592,
      "Ġend": 593,
      "Ġem": 594,
      "Ġev": 595,
      "Ġcalculator": 596,
      "all": 597,
      "top": 598,
      "Ġpar": 599,
      "ash": 600,
      "orm": 601,
      "search": 602,
      "expression": 603,
      "Ġexpression": 604,
      "ĠAPI": 605,
      "auth": 606,
      "Ġby": 607,
      "ĠVerify": 608,
      "ĠChec": 609,
      "aluat": 610,
      "unks": 611,
      "url": 612,
      "Ġchunks": 613,
      "Matched": 614,
      "point": 615,
      "Ġendpoint": 616,
      "Ġembed": 617,
      "Ġevaluat": 618,
      "ĠCheck": 619,
      "2026": 620,
      "864": 621,
      "Compute": 622,
      "ET": 623,
      "Ex": 624,
      "Fet": 625,
      "He": 626,
      "KV": 627,
      "OK": 628,
      "PE": 629,
      "Par": 630,
      "QL": 631,
      "Res": 632,
      "Search": 633,
      "Service": 634,
      "TP": 635,
      "The": 636,
      "TTP": 637,
      "UP": 638,
      "ame": 639,
      "created": 640,
      "cach": 641,
      "db": 642,
      "gt": 643,
      "get": 644,
      "hem": 645,
      "ical": 646,
      "idat": 647,
      "ken": 648,
      "lash": 649,
      "oPE": 650,
      "pon": 651,
      "pic": 652,
      "rom": 653,
      "ruc": 654,
      "sec": 655,
      "ze": 656,
      "Ġat": 657,
      "Ġcalcul": 658,
      "Ġhttps": 659,
      "Ġ864": 660,
      "ĠEx": 661,
      "ĠOK": 662,
      "ĠPar": 663,
      "imil": 664,
      "ention": 665,
      "ariz": 666,
      "arity": 667,
      "athem": 668,
      "atical": 669,
      "ank": 670,
      "alidat": 671,
      "indings": 672,
      "Ġsearch": 673,
      "Ġservice": 674,
      "Ġsimil": 675,
      "ulate": 676,
      "ecute": 677,
      "ased": 678,
      "Ġmathem": 679,
      "Ġcoun": 680,
      "Ġcreated": 681,
      "Ġfrom": 682,
      "Ġfindings": 683,
      "here": 684,
      "Ġ200": 685,
      "Ġ2026": 686,
      "size": 687,
      "erational": 688,
      "Ġretrieved": 689,
      "ters": 690,
      "Ġtoken": 691,
      "Ġtopic": 692,
      "timiz": 693,
      "Ġbased": 694,
      "ĠSend": 695,
      "ĠSyn": 696,
      "ĠSQL": 697,
      "Ġwhere": 698,
      "ĠVector": 699,
      "ĠValidat": 700,
      "thesize": 701,
      "Ġhealthy": 702,
      "Ġrespon": 703,
      "Ġsummariz": 704,
      "Ġoperational": 705,
      "Ġoptimiz": 706,
      "ĠCall": 707,
      "tured": 708,
      "alues": 709,
      "RAG": 710,
      "Ġverify": 711,
      "Ġvalues": 712,
      "Ġbounds": 713,
      "Ġboundary": 714,
      "Ġresults": 715,
      "ĠForm": 716,
      "ĠRank": 717,
      "ĠLog": 718,
      "active": 719,
      "Ġstruc": 720,
      "Ġscores": 721,
      "uptime": 722,
      "Attention": 723,
      "ĠGET": 724,
      "ĠHTTP": 725,
      "Ġparame": 726,
      "Ġembeddings": 727,
      "Ġevaluates": 728,
      "Fetch": 729,
      "Here": 730,
      "Result": 731,
      "cache": 732,
      "lashAttention": 733,
      "Ġcalculation": 734,
      "Ġ86400": 735,
      "ĠExecute": 736,
      "ĠParse": 737,
      "Ġsimilarity": 738,
      "Ġmathematical": 739,
      "Ġcount": 740,
      "Ġtokens": 741,
      "ĠSynthesize": 742,
      "ĠValidate": 743,
      "Ġresponse": 744,
      "Ġsummarize": 745,
      "Ġoptimization": 746,
      "ĠFormulate": 747,
      "Ġstructured": 748,
      "Ġparameters": 749,
      "ping": 750,
      "FlashAttention": 751,
      "RoPE": 752,
      "LoRA": 753,
      "ĠKV": 754,
      "ĠRAG": 755,
      "ĠFlashAttention": 756,
      "ĠRoPE": 757,
      "ĠLoRA": 758,
      "ta": 759,
      "ail": 760,
      "Ġr": 761,
      "erator": 762,
      "Ġoperator": 763,
      "38": 764,
      "Ac": 765,
      "li": 766,
      "nec": 767,
      "por": 768,
      "imen": 769,
      "onnec": 770,
      "ale": 771,
      "ationale": 772,
      "Ġdimen": 773,
      "ynta": 774,
      "Ġrationale": 775,
      "Action": 776,
      "port": 777,
      "Ġdimension": 778,
      "yntax": 779,
      "ad": 780,
      "ke": 781,
      "ly": 782,
      "ore": 783,
      "ror": 784,
      "ual": 785,
      "onta": 786,
      "Ġsyntax": 787,
      "Ġconnec": 788,
      "Ġfail": 789,
      "like": 790,
      "ported": 791,
      "ontain": 792,
      "Ġfailure": 793,
      "10": 794,
      "14": 795,
      "18": 796,
      "22": 797,
      "26": 798,
      "30": 799,
      "34": 800,
      "42": 801,
      "46": 802,
      "50": 803,
      "54": 804,
      "58": 805,
      "62": 806,
      "66": 807,
      "70": 808,
      "74": 809,
      "78": 810,
      "82": 811,
      "86": 812,
      "90": 813,
      "94": 814,
      "98": 815,
      "99": 816,
      "Qual": 817,
      "Tas": 818,
      "ag": 819,
      "ces": 820,
      "contain": 821,
      "ef": 822,
      "est": 823,
      "etriev": 824,
      "fter": 825,
      "le": 826,
      "let": 827,
      "min": 828,
      "nal": 829,
      "pt": 830,
      "rac": 831,
      "tal": 832,
      "Ġh": 833,
      "Ġer": 834,
      "Ġus": 835,
      "ĠQual": 836,
      "empt": 837,
      "ully": 838,
      "Ġafter": 839,
      "Ġcomp": 840,
      "Ġexter": 841,
      "Ġ'$": 842,
      "Ġtotal": 843,
      "ĠSuc": 844,
      "Ġscore": 845,
      "Ġconnection": 846,
      "Task": 847,
      "cess": 848,
      "contains": 849,
      "efully": 850,
      "etrieve": 851,
      "leted": 852,
      "racefully": 853,
      "Ġerror": 854,
      "ĠQuality": 855,
      "Ġcompleted": 856,
      "Ġexternal": 857,
      "ĠSuccess": 858,
      "Rec": 859,
      "Tr": 860,
      "ain": 861,
      "dex": 862,
      "el": 863,
      "gy": 864,
      "gac": 865,
      "gain": 866,
      "lev": 867,
      "metadata": 868,
      "nel": 869,
      "ov": 870,
      "pr": 871,
      "pec": 872,
      "pported": 873,
      "sup": 874,
      "ue": 875,
      "ĠU": 876,
      "Ġlo": 877,
      "Ġun": 878,
      "Ġle": 879,
      "ĠTr": 880,
      "ard": 881,
      "and": 882,
      "annel": 883,
      "Ġspec": 884,
      "Ġagain": 885,
      "orag": 886,
      "expr": 887,
      "trate": 888,
      "ĠAtt": 889,
      "Ġgracefully": 890,
      "ĠStrate": 891,
      "Ġsupported": 892,
      "ĠRetrieve": 893,
      "Ġstore": 894,
      "Ġstorag": 895,
      "Ġdocumentation": 896,
      "Ġindex": 897,
      "author": 898,
      "384": 899,
      "Ġdimensions": 900,
      "ader": 901,
      "admin": 902,
      "Ġusing": 903,
      "Recov": 904,
      "gacy": 905,
      "levant": 906,
      "supported": 907,
      "Ġlegacy": 908,
      "ĠTrue": 909,
      "Ġagainst": 910,
      "ĠAttempt": 911,
      "ĠStrategy": 912,
      "Ġstorage": 913,
      "Recovery": 914
    },
    "merges": [
      [
        "i",
        "m"
      ],
      [
        "<",
        "|"
      ],
      [
        "|",
        ">"
      ],
      [
        "s",
        "t"
      ],
      [
        "e",
        "n"
      ],
      [
        "a",
        "r"
      ],
      [
        "r",
        "e"
      ],
      [
        "a",
        "t"
      ],
      [
        "o",
        "n"
      ],
      [
        "a",
        "n"
      ],
      [
        "e",
        "r"
      ],
      [
        "en",
        "d"
      ],
      [
        "a",
        "l"
      ],
      [
        "st",
        "ar"
      ],
      [
        "star",
        "t"
      ],
      [
        "t",
        "o"
      ],
      [
        "i",
        "n"
      ],
      [
        "t",
        "i"
      ],
      [
        "o",
        "u"
      ],
      [
        "o",
        "l"
      ],
      [
        "in",
        "g"
      ],
      [
        "t",
        "h"
      ],
      [
        "Ġ",
        "an"
      ],
      [
        "e",
        "m"
      ],
      [
        "Ġ",
        "s"
      ],
      [
        "u",
        "l"
      ],
      [
        "Ġ",
        "re"
      ],
      [
        "to",
        "ol"
      ],
      [
        "Ġ",
        "p"
      ],
      [
        "e",
        "c"
      ],
      [
        "a",
        "s"
      ],
      [
        "Ġan",
        "d"
      ],
      [
        "Ġ",
        "a"
      ],
      [
        "\"",
        ":"
      ],
      [
        "c",
        "al"
      ],
      [
        "o",
        "r"
      ],
      [
        "e",
        "d"
      ],
      [
        "c",
        "h"
      ],
      [
        "u",
        "s"
      ],
      [
        "Ġ",
        "\""
      ],
      [
        "ti",
        "on"
      ],
      [
        "i",
        "on"
      ],
      [
        "Ġ",
        "m"
      ],
      [
        "h",
        "t"
      ],
      [
        "b",
        "l"
      ],
      [
        "y",
        "st"
      ],
      [
        "yst",
        "em"
      ],
      [
        "l",
        "an"
      ],
      [
        "at",
        "ion"
      ],
      [
        "Ġ",
        "o"
      ],
      [
        "{",
        "\""
      ],
      [
        "s",
        "e"
      ],
      [
        "re",
        "s"
      ],
      [
        "Ġ",
        "ar"
      ],
      [
        "ul",
        "t"
      ],
      [
        "er",
        "en"
      ],
      [
        "Ġa",
        "c"
      ],
      [
        "e",
        "x"
      ],
      [
        "Ġ",
        "c"
      ],
      [
        "Ġ",
        "f"
      ],
      [
        "e",
        "v"
      ],
      [
        "o",
        "m"
      ],
      [
        "u",
        "t"
      ],
      [
        "st",
        "at"
      ],
      [
        "stat",
        "us"
      ],
      [
        "h",
        "e"
      ],
      [
        "Ġ",
        "ex"
      ],
      [
        "en",
        "t"
      ],
      [
        "m",
        "ent"
      ],
      [
        "t",
        "r"
      ],
      [
        "Ġ",
        "A"
      ],
      [
        "i",
        "ev"
      ],
      [
        "tr",
        "iev"
      ],
      [
        "a",
        "p"
      ],
      [
        "a",
        "u"
      ],
      [
        "Ġ",
        "2"
      ],
      [
        "Ġ",
        "tool"
      ],
      [
        "Ġo",
        "f"
      ],
      [
        "s",
        "i"
      ],
      [
        "Ġ",
        "'"
      ],
      [
        "er",
        "ation"
      ],
      [
        "Ġre",
        "triev"
      ],
      [
        "ou",
        "n"
      ],
      [
        "i",
        "l"
      ],
      [
        "t",
        "er"
      ],
      [
        "Ġ",
        "to"
      ],
      [
        "th",
        "ou"
      ],
      [
        "g",
        "ht"
      ],
      [
        "u",
        "tion"
      ],
      [
        "ec",
        "ution"
      ],
      [
        "Ġex",
        "ecution"
      ],
      [
        "thou",
        "ght"
      ],
      [
        "(",
        "{\""
      ],
      [
        "a",
        "bl"
      ],
      [
        "}",
        ")"
      ],
      [
        "Ġ",
        "g"
      ],
      [
        "an",
        "t"
      ],
      [
        "er",
        "y"
      ],
      [
        "cal",
        "l"
      ],
      [
        "res",
        "ult"
      ],
      [
        "d",
        "at"
      ],
      [
        "t",
        "im"
      ],
      [
        "re",
        "c"
      ],
      [
        "to",
        "r"
      ],
      [
        "Ġs",
        "ystem"
      ],
      [
        "Ġre",
        "as"
      ],
      [
        "ec",
        "tor"
      ],
      [
        "abl",
        "e"
      ],
      [
        "Ġreas",
        "on"
      ],
      [
        "P",
        "lan"
      ],
      [
        "X",
        "eren"
      ],
      [
        "Y",
        "ou"
      ],
      [
        "e",
        "p"
      ],
      [
        "g",
        "ment"
      ],
      [
        "i",
        "se"
      ],
      [
        "n",
        "ing"
      ],
      [
        "o",
        "bl"
      ],
      [
        "q",
        "u"
      ],
      [
        "r",
        "obl"
      ],
      [
        "s",
        "ystem"
      ],
      [
        "v",
        "ing"
      ],
      [
        "Ġ",
        "Xeren"
      ],
      [
        "st",
        "ant"
      ],
      [
        "st",
        "ep"
      ],
      [
        "en",
        "eration"
      ],
      [
        "on",
        "om"
      ],
      [
        "ou",
        "s"
      ],
      [
        "ol",
        "ving"
      ],
      [
        "Ġs",
        "olving"
      ],
      [
        "ul",
        "ti"
      ],
      [
        "Ġp",
        "lan"
      ],
      [
        "Ġp",
        "rec"
      ],
      [
        "Ġp",
        "robl"
      ],
      [
        "as",
        "si"
      ],
      [
        "Ġa",
        "ut"
      ],
      [
        "us",
        "er"
      ],
      [
        "Ġm",
        "ulti"
      ],
      [
        "Ġar",
        "e"
      ],
      [
        "Ġac",
        "tion"
      ],
      [
        "Ġc",
        "ap"
      ],
      [
        "ĠA",
        "I"
      ],
      [
        "au",
        "gment"
      ],
      [
        "Ġretriev",
        "al"
      ],
      [
        "Ġg",
        "eneration"
      ],
      [
        "Ġreason",
        "ing"
      ],
      [
        "qu",
        "ery"
      ],
      [
        "onom",
        "ous"
      ],
      [
        "Ġplan",
        "ning"
      ],
      [
        "Ġprec",
        "ise"
      ],
      [
        "Ġprobl",
        "em"
      ],
      [
        "assi",
        "stant"
      ],
      [
        "Ġaut",
        "onomous"
      ],
      [
        "Ġcap",
        "able"
      ],
      [
        "augment",
        "ed"
      ],
      [
        "\"",
        ","
      ],
      [
        "t",
        "p"
      ],
      [
        "Ġ",
        "3"
      ],
      [
        "al",
        "th"
      ],
      [
        "ht",
        "tp"
      ],
      [
        "he",
        "alth"
      ],
      [
        "i",
        "th"
      ],
      [
        "Ġ",
        "b"
      ],
      [
        "oun",
        "d"
      ],
      [
        "0",
        "1"
      ],
      [
        "0",
        "2"
      ],
      [
        "6",
        "4"
      ],
      [
        "v",
        "e"
      ],
      [
        "Ġ",
        "1"
      ],
      [
        "ti",
        "ve"
      ],
      [
        "il",
        "ter"
      ],
      [
        "e",
        "t"
      ],
      [
        "Ġ",
        "S"
      ],
      [
        "v",
        "ector"
      ],
      [
        "dat",
        "a"
      ],
      [
        "tim",
        "e"
      ],
      [
        "c",
        "ul"
      ],
      [
        "e",
        "s"
      ],
      [
        "l",
        "o"
      ],
      [
        "Ġ",
        "w"
      ],
      [
        "Ġ",
        "status"
      ],
      [
        "Ġ",
        "i"
      ],
      [
        "at",
        "ch"
      ],
      [
        "Ġs",
        "u"
      ],
      [
        "cal",
        "cul"
      ],
      [
        "Ġf",
        "or"
      ],
      [
        "/",
        "/"
      ],
      [
        ":",
        "//"
      ],
      [
        "i",
        "c"
      ],
      [
        "Ġ",
        "*"
      ],
      [
        "Ġ",
        "V"
      ],
      [
        "ar",
        "ch"
      ],
      [
        "th",
        "e"
      ],
      [
        "http",
        "s"
      ],
      [
        "5",
        "6"
      ],
      [
        "c",
        "or"
      ],
      [
        "d",
        "s"
      ],
      [
        "m",
        "e"
      ],
      [
        "m",
        "m"
      ],
      [
        "x",
        "eren"
      ],
      [
        "Ġ",
        "+"
      ],
      [
        "Ġ",
        "health"
      ],
      [
        "Ġ",
        "64"
      ],
      [
        "ar",
        "y"
      ],
      [
        "Ġre",
        "s"
      ],
      [
        "Ġre",
        "cor"
      ],
      [
        "Ġac",
        "tive"
      ],
      [
        "Ġ2",
        "56"
      ],
      [
        "lo",
        "cal"
      ],
      [
        "Ġi",
        "s"
      ],
      [
        "Ġsu",
        "mm"
      ],
      [
        "Ġrecor",
        "ds"
      ],
      [
        "at",
        "or"
      ],
      [
        "i",
        "t"
      ],
      [
        "s",
        "ion"
      ],
      [
        "u",
        "re"
      ],
      [
        "Ġo",
        "p"
      ],
      [
        "ou",
        "t"
      ],
      [
        "Ġ",
        "{\""
      ],
      [
        "f",
        "y"
      ],
      [
        "Ġ",
        "C"
      ],
      [
        "time",
        "out"
      ],
      [
        "i",
        "fy"
      ],
      [
        "p",
        "res"
      ],
      [
        "t",
        "ure"
      ],
      [
        "Ġ",
        "query"
      ],
      [
        "er",
        "ify"
      ],
      [
        "ut",
        "e"
      ],
      [
        "calcul",
        "ator"
      ],
      [
        "pres",
        "sion"
      ],
      [
        "F",
        "ound"
      ],
      [
        "d",
        "ing"
      ],
      [
        "Ġ",
        "the"
      ],
      [
        "al",
        "u"
      ],
      [
        "Ġm",
        "atch"
      ],
      [
        "Ġw",
        "ith"
      ],
      [
        "Ġmatch",
        "ing"
      ],
      [
        "0",
        "0"
      ],
      [
        "L",
        "o"
      ],
      [
        "R",
        "A"
      ],
      [
        "b",
        "as"
      ],
      [
        "e",
        "arch"
      ],
      [
        "i",
        "z"
      ],
      [
        "v",
        "ic"
      ],
      [
        "Ġ",
        ">"
      ],
      [
        "Ġ",
        "v"
      ],
      [
        "Ġ",
        "data"
      ],
      [
        "re",
        "at"
      ],
      [
        "er",
        "vic"
      ],
      [
        "ti",
        "c"
      ],
      [
        "Ġar",
        "ith"
      ],
      [
        "Ġb",
        "ound"
      ],
      [
        "02",
        "4"
      ],
      [
        "02",
        "6"
      ],
      [
        "Ġ1",
        "5"
      ],
      [
        "Ġ1",
        "024"
      ],
      [
        "me",
        "tic"
      ],
      [
        "Ġres",
        "ult"
      ],
      [
        "Ġsumm",
        "ary"
      ],
      [
        "ding",
        "s"
      ],
      [
        "bas",
        "e"
      ],
      [
        "Ġdata",
        "base"
      ],
      [
        "reat",
        "ed"
      ],
      [
        "ervic",
        "e"
      ],
      [
        "Ġarith",
        "metic"
      ],
      [
        "Ġ",
        "F"
      ],
      [
        "Ġ",
        "R"
      ],
      [
        "Ġ",
        "d"
      ],
      [
        "Ġ",
        "Lo"
      ],
      [
        "o",
        "c"
      ],
      [
        "Ġd",
        "oc"
      ],
      [
        "a",
        "c"
      ],
      [
        "Ġ",
        "st"
      ],
      [
        "u",
        "n"
      ],
      [
        "u",
        "ment"
      ],
      [
        "y",
        "n"
      ],
      [
        "em",
        "or"
      ],
      [
        "om",
        "p"
      ],
      [
        "Ġdoc",
        "ument"
      ],
      [
        "emor",
        "y"
      ],
      [
        "a",
        "data"
      ],
      [
        "f",
        "ilter"
      ],
      [
        "Ġ",
        "vector"
      ],
      [
        "Ġm",
        "emory"
      ],
      [
        "et",
        "adata"
      ],
      [
        "it",
        "y"
      ],
      [
        "c",
        "o"
      ],
      [
        "t",
        "t"
      ],
      [
        "u",
        "c"
      ],
      [
        "u",
        "r"
      ],
      [
        "Ġ",
        "0"
      ],
      [
        "at",
        "e"
      ],
      [
        "Ġs",
        "co"
      ],
      [
        "ch",
        "it"
      ],
      [
        "Ġar",
        "chit"
      ],
      [
        "Ġf",
        "ilter"
      ],
      [
        "Ġarchit",
        "ec"
      ],
      [
        "\"",
        "}"
      ],
      [
        "u",
        "p"
      ],
      [
        "}",
        "})"
      ],
      [
        "Ġ",
        "in"
      ],
      [
        "Ġ",
        "ch"
      ],
      [
        "Ġ",
        "timeout"
      ],
      [
        "Ġm",
        "etadata"
      ],
      [
        "ap",
        "i"
      ],
      [
        "Ġ{\"",
        "$"
      ],
      [
        "omp",
        "ute"
      ],
      [
        "Ġdocument",
        "s"
      ],
      [
        "Ġarchitec",
        "ture"
      ],
      [
        "\"}",
        "}})"
      ],
      [
        "\"",
        "})"
      ],
      [
        "8",
        "5"
      ],
      [
        "A",
        "tt"
      ],
      [
        "F",
        "ilter"
      ],
      [
        "M",
        "atch"
      ],
      [
        "P",
        "I"
      ],
      [
        "a",
        "ch"
      ],
      [
        "b",
        "ed"
      ],
      [
        "h",
        "ec"
      ],
      [
        "k",
        "s"
      ],
      [
        "o",
        "in"
      ],
      [
        "p",
        "oin"
      ],
      [
        "Ġ",
        "G"
      ],
      [
        "Ġ",
        "H"
      ],
      [
        "Ġ",
        "on"
      ],
      [
        "Ġ",
        "end"
      ],
      [
        "Ġ",
        "em"
      ],
      [
        "Ġ",
        "ev"
      ],
      [
        "Ġ",
        "calculator"
      ],
      [
        "al",
        "l"
      ],
      [
        "to",
        "p"
      ],
      [
        "Ġp",
        "ar"
      ],
      [
        "as",
        "h"
      ],
      [
        "or",
        "m"
      ],
      [
        "se",
        "arch"
      ],
      [
        "ex",
        "pression"
      ],
      [
        "Ġex",
        "pression"
      ],
      [
        "ĠA",
        "PI"
      ],
      [
        "au",
        "th"
      ],
      [
        "Ġb",
        "y"
      ],
      [
        "ĠV",
        "erify"
      ],
      [
        "ĠC",
        "hec"
      ],
      [
        "alu",
        "at"
      ],
      [
        "un",
        "ks"
      ],
      [
        "ur",
        "l"
      ],
      [
        "Ġch",
        "unks"
      ],
      [
        "Match",
        "ed"
      ],
      [
        "poin",
        "t"
      ],
      [
        "Ġend",
        "point"
      ],
      [
        "Ġem",
        "bed"
      ],
      [
        "Ġev",
        "aluat"
      ],
      [
        "ĠChec",
        "k"
      ],
      [
        "2",
        "026"
      ],
      [
        "8",
        "64"
      ],
      [
        "C",
        "ompute"
      ],
      [
        "E",
        "T"
      ],
      [
        "E",
        "x"
      ],
      [
        "F",
        "et"
      ],
      [
        "H",
        "e"
      ],
      [
        "K",
        "V"
      ],
      [
        "O",
        "K"
      ],
      [
        "P",
        "E"
      ],
      [
        "P",
        "ar"
      ],
      [
        "Q",
        "L"
      ],
      [
        "R",
        "es"
      ],
      [
        "S",
        "earch"
      ],
      [
        "S",
        "ervice"
      ],
      [
        "T",
        "P"
      ],
      [
        "T",
        "he"
      ],
      [
        "T",
        "TP"
      ],
      [
        "U",
        "P"
      ],
      [
        "a",
        "me"
      ],
      [
        "c",
        "reated"
      ],
      [
        "c",
        "ach"
      ],
      [
        "d",
        "b"
      ],
      [
        "g",
        "t"
      ],
      [
        "g",
        "et"
      ],
      [
        "h",
        "em"
      ],
      [
        "i",
        "cal"
      ],
      [
        "i",
        "dat"
      ],
      [
        "k",
        "en"
      ],
      [
        "l",
        "ash"
      ],
      [
        "o",
        "PE"
      ],
      [
        "p",
        "on"
      ],
      [
        "p",
        "ic"
      ],
      [
        "r",
        "om"
      ],
      [
        "r",
        "uc"
      ],
      [
        "s",
        "ec"
      ],
      [
        "z",
        "e"
      ],
      [
        "Ġ",
        "at"
      ],
      [
        "Ġ",
        "calcul"
      ],
      [
        "Ġ",
        "https"
      ],
      [
        "Ġ",
        "864"
      ],
      [
        "Ġ",
        "Ex"
      ],
      [
        "Ġ",
        "OK"
      ],
      [
        "Ġ",
        "Par"
      ],
      [
        "im",
        "il"
      ],
      [
        "en",
        "tion"
      ],
      [
        "ar",
        "iz"
      ],
      [
        "ar",
        "ity"
      ],
      [
        "at",
        "hem"
      ],
      [
        "at",
        "ical"
      ],
      [
        "an",
        "k"
      ],
      [
        "al",
        "idat"
      ],
      [
        "in",
        "dings"
      ],
      [
        "Ġs",
        "earch"
      ],
      [
        "Ġs",
        "ervice"
      ],
      [
        "Ġs",
        "imil"
      ],
      [
        "ul",
        "ate"
      ],
      [
        "ec",
        "ute"
      ],
      [
        "as",
        "ed"
      ],
      [
        "Ġm",
        "athem"
      ],
      [
        "Ġc",
        "oun"
      ],
      [
        "Ġc",
        "reated"
      ],
      [
        "Ġf",
        "rom"
      ],
      [
        "Ġf",
        "indings"
      ],
      [
        "he",
        "re"
      ],
      [
        "Ġ2",
        "00"
      ],
      [
        "Ġ2",
        "026"
      ],
      [
        "si",
        "ze"
      ],
      [
        "eration",
        "al"
      ],
      [
        "Ġretriev",
        "ed"
      ],
      [
        "ter",
        "s"
      ],
      [
        "Ġto",
        "ken"
      ],
      [
        "Ġto",
        "pic"
      ],
      [
        "tim",
        "iz"
      ],
      [
        "Ġb",
        "ased"
      ],
      [
        "ĠS",
        "end"
      ],
      [
        "ĠS",
        "yn"
      ],
      [
        "ĠS",
        "QL"
      ],
      [
        "Ġw",
        "here"
      ],
      [
        "ĠV",
        "ector"
      ],
      [
        "ĠV",
        "alidat"
      ],
      [
        "the",
        "size"
      ],
      [
        "Ġhealth",
        "y"
      ],
      [
        "Ġres",
        "pon"
      ],
      [
        "Ġsumm",
        "ariz"
      ],
      [
        "Ġop",
        "erational"
      ],
      [
        "Ġop",
        "timiz"
      ],
      [
        "ĠC",
        "all"
      ],
      [
        "ture",
        "d"
      ],
      [
        "alu",
        "es"
      ],
      [
        "RA",
        "G"
      ],
      [
        "Ġv",
        "erify"
      ],
      [
        "Ġv",
        "alues"
      ],
      [
        "Ġbound",
        "s"
      ],
      [
        "Ġbound",
        "ary"
      ],
      [
        "Ġresult",
        "s"
      ],
      [
        "ĠF",
        "orm"
      ],
      [
        "ĠR",
        "ank"
      ],
      [
        "ĠLo",
        "g"
      ],
      [
        "ac",
        "tive"
      ],
      [
        "Ġst",
        "ruc"
      ],
      [
        "Ġsco",
        "res"
      ],
      [
        "up",
        "time"
      ],
      [
        "Att",
        "ention"
      ],
      [
        "ĠG",
        "ET"
      ],
      [
        "ĠH",
        "TTP"
      ],
      [
        "Ġpar",
        "ame"
      ],
      [
        "Ġembed",
        "dings"
      ],
      [
        "Ġevaluat",
        "es"
      ],
      [
        "Fet",
        "ch"
      ],
      [
        "He",
        "re"
      ],
      [
        "Res",
        "ult"
      ],
      [
        "cach",
        "e"
      ],
      [
        "lash",
        "Attention"
      ],
      [
        "Ġcalcul",
        "ation"
      ],
      [
        "Ġ864",
        "00"
      ],
      [
        "ĠEx",
        "ecute"
      ],
      [
        "ĠPar",
        "se"
      ],
      [
        "Ġsimil",
        "arity"
      ],
      [
        "Ġmathem",
        "atical"
      ],
      [
        "Ġcoun",
        "t"
      ],
      [
        "Ġtoken",
        "s"
      ],
      [
        "ĠSyn",
        "thesize"
      ],
      [
        "ĠValidat",
        "e"
      ],
      [
        "Ġrespon",
        "se"
      ],
      [
        "Ġsummariz",
        "e"
      ],
      [
        "Ġoptimiz",
        "ation"
      ],
      [
        "ĠForm",
        "ulate"
      ],
      [
        "Ġstruc",
        "tured"
      ],
      [
        "Ġparame",
        "ters"
      ],
      [
        "p",
        "ing"
      ],
      [
        "F",
        "lashAttention"
      ],
      [
        "R",
        "oPE"
      ],
      [
        "Lo",
        "RA"
      ],
      [
        "Ġ",
        "KV"
      ],
      [
        "Ġ",
        "RAG"
      ],
      [
        "ĠF",
        "lashAttention"
      ],
      [
        "ĠR",
        "oPE"
      ],
      [
        "ĠLo",
        "RA"
      ],
      [
        "t",
        "a"
      ],
      [
        "a",
        "il"
      ],
      [
        "Ġ",
        "r"
      ],
      [
        "er",
        "ator"
      ],
      [
        "Ġop",
        "erator"
      ],
      [
        "3",
        "8"
      ],
      [
        "A",
        "c"
      ],
      [
        "l",
        "i"
      ],
      [
        "n",
        "ec"
      ],
      [
        "p",
        "or"
      ],
      [
        "im",
        "en"
      ],
      [
        "on",
        "nec"
      ],
      [
        "al",
        "e"
      ],
      [
        "ation",
        "ale"
      ],
      [
        "Ġd",
        "imen"
      ],
      [
        "yn",
        "ta"
      ],
      [
        "Ġr",
        "ationale"
      ],
      [
        "Ac",
        "tion"
      ],
      [
        "por",
        "t"
      ],
      [
        "Ġdimen",
        "sion"
      ],
      [
        "ynta",
        "x"
      ],
      [
        "a",
        "d"
      ],
      [
        "k",
        "e"
      ],
      [
        "l",
        "y"
      ],
      [
        "o",
        "re"
      ],
      [
        "r",
        "or"
      ],
      [
        "u",
        "al"
      ],
      [
        "on",
        "ta"
      ],
      [
        "Ġs",
        "yntax"
      ],
      [
        "Ġc",
        "onnec"
      ],
      [
        "Ġf",
        "ail"
      ],
      [
        "li",
        "ke"
      ],
      [
        "port",
        "ed"
      ],
      [
        "onta",
        "in"
      ],
      [
        "Ġfail",
        "ure"
      ],
      [
        "1",
        "0"
      ],
      [
        "1",
        "4"
      ],
      [
        "1",
        "8"
      ],
      [
        "2",
        "2"
      ],
      [
        "2",
        "6"
      ],
      [
        "3",
        "0"
      ],
      [
        "3",
        "4"
      ],
      [
        "4",
        "2"
      ],
      [
        "4",
        "6"
      ],
      [
        "5",
        "0"
      ],
      [
        "5",
        "4"
      ],
      [
        "5",
        "8"
      ],
      [
        "6",
        "2"
      ],
      [
        "6",
        "6"
      ],
      [
        "7",
        "0"
      ],
      [
        "7",
        "4"
      ],
      [
        "7",
        "8"
      ],
      [
        "8",
        "2"
      ],
      [
        "8",
        "6"
      ],
      [
        "9",
        "0"
      ],
      [
        "9",
        "4"
      ],
      [
        "9",
        "8"
      ],
      [
        "9",
        "9"
      ],
      [
        "Q",
        "ual"
      ],
      [
        "T",
        "as"
      ],
      [
        "a",
        "g"
      ],
      [
        "c",
        "es"
      ],
      [
        "c",
        "ontain"
      ],
      [
        "e",
        "f"
      ],
      [
        "e",
        "st"
      ],
      [
        "e",
        "triev"
      ],
      [
        "f",
        "ter"
      ],
      [
        "l",
        "e"
      ],
      [
        "l",
        "et"
      ],
      [
        "m",
        "in"
      ],
      [
        "n",
        "al"
      ],
      [
        "p",
        "t"
      ],
      [
        "r",
        "ac"
      ],
      [
        "t",
        "al"
      ],
      [
        "Ġ",
        "h"
      ],
      [
        "Ġ",
        "er"
      ],
      [
        "Ġ",
        "us"
      ],
      [
        "Ġ",
        "Qual"
      ],
      [
        "em",
        "pt"
      ],
      [
        "ul",
        "ly"
      ],
      [
        "Ġa",
        "fter"
      ],
      [
        "Ġc",
        "omp"
      ],
      [
        "Ġex",
        "ter"
      ],
      [
        "Ġ'",
        "$"
      ],
      [
        "Ġto",
        "tal"
      ],
      [
        "ĠS",
        "uc"
      ],
      [
        "Ġsco",
        "re"
      ],
      [
        "Ġconnec",
        "tion"
      ],
      [
        "Tas",
        "k"
      ],
      [
        "ces",
        "s"
      ],
      [
        "contain",
        "s"
      ],
      [
        "ef",
        "ully"
      ],
      [
        "etriev",
        "e"
      ],
      [
        "let",
        "ed"
      ],
      [
        "rac",
        "efully"
      ],
      [
        "Ġer",
        "ror"
      ],
      [
        "ĠQual",
        "ity"
      ],
      [
        "Ġcomp",
        "leted"
      ],
      [
        "Ġexter",
        "nal"
      ],
      [
        "ĠSuc",
        "cess"
      ],
      [
        "R",
        "ec"
      ],
      [
        "T",
        "r"
      ],
      [
        "a",
        "in"
      ],
      [
        "d",
        "ex"
      ],
      [
        "e",
        "l"
      ],
      [
        "g",
        "y"
      ],
      [
        "g",
        "ac"
      ],
      [
        "g",
        "ain"
      ],
      [
        "l",
        "ev"
      ],
      [
        "m",
        "etadata"
      ],
      [
        "n",
        "el"
      ],
      [
        "o",
        "v"
      ],
      [
        "p",
        "r"
      ],
      [
        "p",
        "ec"
      ],
      [
        "p",
        "ported"
      ],
      [
        "s",
        "up"
      ],
      [
        "u",
        "e"
      ],
      [
        "Ġ",
        "U"
      ],
      [
        "Ġ",
        "lo"
      ],
      [
        "Ġ",
        "un"
      ],
      [
        "Ġ",
        "le"
      ],
      [
        "Ġ",
        "Tr"
      ],
      [
        "ar",
        "d"
      ],
      [
        "an",
        "d"
      ],
      [
        "an",
        "nel"
      ],
      [
        "Ġs",
        "pec"
      ],
      [
        "Ġa",
        "gain"
      ],
      [
        "or",
        "ag"
      ],
      [
        "ex",
        "pr"
      ],
      [
        "tr",
        "ate"
      ],
      [
        "ĠA",
        "tt"
      ],
      [
        "Ġg",
        "racefully"
      ],
      [
        "ĠS",
        "trate"
      ],
      [
        "Ġsu",
        "pported"
      ],
      [
        "ĠR",
        "etrieve"
      ],
      [
        "Ġst",
        "ore"
      ],
      [
        "Ġst",
        "orag"
      ],
      [
        "Ġdocument",
        "ation"
      ],
      [
        "Ġin",
        "dex"
      ],
      [
        "auth",
        "or"
      ],
      [
        "38",
        "4"
      ],
      [
        "Ġdimension",
        "s"
      ],
      [
        "ad",
        "er"
      ],
      [
        "ad",
        "min"
      ],
      [
        "Ġus",
        "ing"
      ],
      [
        "Rec",
        "ov"
      ],
      [
        "gac",
        "y"
      ],
      [
        "lev",
        "ant"
      ],
      [
        "sup",
        "ported"
      ],
      [
        "Ġle",
        "gacy"
      ],
      [
        "ĠTr",
        "ue"
      ],
      [
        "Ġagain",
        "st"
      ],
      [
        "ĠAtt",
        "empt"
      ],
      [
        "ĠStrate",
        "gy"
      ],
      [
        "Ġstorag",
        "e"
      ],
      [
        "Recov",
        "ery"
      ]
    ]
  }
}